{
  "version": "1.0",
  "truncation": null,
  "padding": null,
  "added_tokens": [
    {
      "id": 0,
      "content": "<|endoftext|>",
      "single_word": false,
      "lstrip": false,
      "rstrip": false,
      "normalized": false,
      "special": true
    },
    {
      "id": 1,
      "content": "<|pad|>",
      "single_word": false,
      "lstrip": false,
      "rstrip": false,
      "normalized": false,
      "special": true
    },
    {
      "id": 2,
      "content": "<|fim_prefix|>",
      "single_word": false,
      "lstrip": false,
      "rstrip": false,
      "normalized": false,
      "special": true
    },
    {
      "id": 3,
      "content": "<|fim_middle|>",
      "single_word": false,
      "lstrip": false,
      "rstrip": false,
      "normalized": false,
      "special": true
    },
    {
      "id": 4,
      "content": "<|fim_suffix|>",
      "single_word": false,
      "lstrip": false,
      "rstrip": false,
      "normalized": false,
      "special": true
    },
    {
      "id": 5,
      "content": "<EMAIL>",
      "single_word": false,
      "lstrip": false,
      "rstrip": false,
      "normalized": false,
      "special": true
    },
    {
      "id": 6,
      "content": "<KEY>",
      "single_word": false,
      "lstrip": false,
      "rstrip": false,
      "normalized": false,
      "special": true
    },
    {
      "id": 7,
      "content": "<NAME>",
      "single_word": false,
      "lstrip": false,
      "rstrip": false,
      "normalized": false,
      "special": true
    },
    {
      "id": 8,
      "content": "<PASSWORD>",
      "single_word": false,
      "lstrip": false,
      "rstrip": false,
      "normalized": false,
      "special": true
    }
  ],
  "normalizer": null,
  "pre_tokenizer": {
    "type": "Sequence",
    "pretokenizers": [
      {
        "type": "Split",
        "pattern": {
          "Regex": "(?i:'s|'t|'re|'ve|'m|'ll|'d)|[^\\r\\n\\p{L}\\p{N}]?\\p{L}+|\\p{N}{1,3}| ?[^\\s\\p{L}\\p{N}]+[\\r\\n]*|\\s*[\\r\\n]+|\\s+(?!\\S)|\\s+"
        },
        "behavior": "Isolated",
        "invert": false
      },
      {
        "type": "ByteLevel",
        "add_prefix_space": false,
        "trim_offsets": true,
        "use_regex": false
      }
    ]
  },
  "post_processor": null,
  "decoder": {
    "type": "ByteLevel",
    "add_prefix_space": true,
    "trim_offsets": true,
    "use_regex": true
  },
  "model": {
    "type": "BPE",
    "dropout": null,
    "unk_token": null,
    "continuing_subword_prefix": null,
    "end_of_word_suffix": null,
    "fuse_unk": false,
    "byte_fallback": false,
    "ignore_merges": false,
    "vocab": {
      "<|endoftext|>": 0,
      "<|pad|>": 1,
      "<|fim_prefix|>": 2,
      "<|fim_middle|>": 3,
      "<|fim_suffix|>": 4,
      "<EMAIL>": 5,
      "<KEY>": 6,
      "<NAME>": 7,
      "<PASSWORD>": 8,
      "!": 9,
      "\"": 10,
      "#": 11,
      "$": 12,
      "%": 13,
      "&": 14,
      "'": 15,
      "(": 16,
      ")": 17,
      "*": 18,
      "+": 19,
      ",": 20,
      "-": 21,
      ".": 22,
      "/": 23,
      "0": 24,
      "1": 25,
      "2": 26,
      "3": 27,
      "4": 28,
      "5": 29,
      "6": 30,
      "7": 31,
      "8": 32,
      "9": 33,
      ":": 34,
      ";": 35,
      "<": 36,
      "=": 37,
      ">": 38,
      "?": 39,
      "@": 40,
      "A": 41,
      "B": 42,
      "C": 43,
      "D": 44,
      "E": 45,
      "F": 46,
      "G": 47,
      "H": 48,
      "I": 49,
      "J": 50,
      "K": 51,
      "L": 52,
      "M": 53,
      "N": 54,
      "O": 55,
      "P": 56,
      "Q": 57,
      "R": 58,
      "S": 59,
      "T": 60,
      "U": 61,
      "V": 62,
      "W": 63,
      "X": 64,
      "Y": 65,
      "Z": 66,
      "[": 67,
      "\\": 68,
      "]": 69,
      "^": 70,
      "_": 71,
      "`": 72,
      "a": 73,
      "b": 74,
      "c": 75,
      "d": 76,
      "e": 77,
      "f": 78,
      "g": 79,
      "h": 80,
      "i": 81,
      "j": 82,
      "k": 83,
      "l": 84,
      "m": 85,
      "n": 86,
      "o": 87,
      "p": 88,
      "q": 89,
      "r": 90,
      "s": 91,
      "t": 92,
      "u": 93,
      "v": 94,
      "w": 95,
      "x": 96,
      "y": 97,
      "z": 98,
      "{": 99,
      "|": 100,
      "}": 101,
      "~": 102,
      "¡": 103,
      "¢": 104,
      "£": 105,
      "¤": 106,
      "¥": 107,
      "¦": 108,
      "§": 109,
      "¨": 110,
      "©": 111,
      "ª": 112,
      "«": 113,
      "¬": 114,
      "®": 115,
      "¯": 116,
      "°": 117,
      "±": 118,
      "²": 119,
      "³": 120,
      "´": 121,
      "µ": 122,
      "¶": 123,
      "·": 124,
      "¸": 125,
      "¹": 126,
      "º": 127,
      "»": 128,
      "¼": 129,
      "½": 130,
      "¾": 131,
      "¿": 132,
      "À": 133,
      "Á": 134,
      "Â": 135,
      "Ã": 136,
      "Ä": 137,
      "Å": 138,
      "Æ": 139,
      "Ç": 140,
      "È": 141,
      "É": 142,
      "Ê": 143,
      "Ë": 144,
      "Ì": 145,
      "Í": 146,
      "Î": 147,
      "Ï": 148,
      "Ð": 149,
      "Ñ": 150,
      "Ò": 151,
      "Ó": 152,
      "Ô": 153,
      "Õ": 154,
      "Ö": 155,
      "×": 156,
      "Ø": 157,
      "Ù": 158,
      "Ú": 159,
      "Û": 160,
      "Ü": 161,
      "Ý": 162,
      "Þ": 163,
      "ß": 164,
      "à": 165,
      "á": 166,
      "â": 167,
      "ã": 168,
      "ä": 169,
      "å": 170,
      "æ": 171,
      "ç": 172,
      "è": 173,
      "é": 174,
      "ê": 175,
      "ë": 176,
      "ì": 177,
      "í": 178,
      "î": 179,
      "ï": 180,
      "ð": 181,
      "ñ": 182,
      "ò": 183,
      "ó": 184,
      "ô": 185,
      "õ": 186,
      "ö": 187,
      "÷": 188,
      "ø": 189,
      "ù": 190,
      "ú": 191,
      "û": 192,
      "ü": 193,
      "ý": 194,
      "þ": 195,
      "ÿ": 196,
      "Ā": 197,
      "ā": 198,
      "Ă": 199,
      "ă": 200,
      "Ą": 201,
      "ą": 202,
      "Ć": 203,
      "ć": 204,
      "Ĉ": 205,
      "ĉ": 206,
      "Ċ": 207,
      "ċ": 208,
      "Č": 209,
      "č": 210,
      "Ď": 211,
      "ď": 212,
      "Đ": 213,
      "đ": 214,
      "Ē": 215,
      "ē": 216,
      "Ĕ": 217,
      "ĕ": 218,
      "Ė": 219,
      "ė": 220,
      "Ę": 221,
      "ę": 222,
      "Ě": 223,
      "ě": 224,
      "Ĝ": 225,
      "ĝ": 226,
      "Ğ": 227,
      "ğ": 228,
      "Ġ": 229,
      "ġ": 230,
      "Ģ": 231,
      "ģ": 232,
      "Ĥ": 233,
      "ĥ": 234,
      "Ħ": 235,
      "ħ": 236,
      "Ĩ": 237,
      "ĩ": 238,
      "Ī": 239,
      "ī": 240,
      "Ĭ": 241,
      "ĭ": 242,
      "Į": 243,
      "į": 244,
      "İ": 245,
      "ı": 246,
      "Ĳ": 247,
      "ĳ": 248,
      "Ĵ": 249,
      "ĵ": 250,
      "Ķ": 251,
      "ķ": 252,
      "ĸ": 253,
      "Ĺ": 254,
      "ĺ": 255,
      "Ļ": 256,
      "ļ": 257,
      "Ľ": 258,
      "ľ": 259,
      "Ŀ": 260,
      "ŀ": 261,
      "Ł": 262,
      "ł": 263,
      "Ń": 264,
      "ĠĠ": 265,
      "ĠĠĠĠ": 266,
      "ĠĠĠ": 267,
      "in": 268,
      "ĠĠĠĠĠĠĠĠ": 269,
      "Ġt": 270,
      "re": 271,
      "se": 272,
      "at": 273,
      "on": 274,
      "or": 275,
      "er": 276,
      "Ġa": 277,
      "Ġ=": 278,
      "st": 279,
      "ĠĠĠĠĠĠĠ": 280,
      "en": 281,
      ")Ċ": 282,
      "he": 283,
      "Ġc": 284,
      "al": 285,
      "Ġp": 286,
      "de": 287,
      "le": 288,
      "it": 289,
      "ar": 290,
      "an": 291,
      "Ġf": 292,
      ":Ċ": 293,
      "Ġi": 294,
      "Ġthe": 295,
      "me": 296,
      "Ġin": 297,
      "sel": 298,
      "ro": 299,
      "ion": 300,
      "self": 301,
      "Ġs": 302,
      "Ġo": 303,
      "čĊ": 304,
      "ct": 305,
      "ur": 306,
      "ĠĠĠĠĠĠĠĠĠĠĠ": 307,
      "Ġn": 308,
      "ing": 309,
      "--": 310,
      "es": 311,
      "Ġw": 312,
      "Ġre": 313,
      "ĊĊ": 314,
      "Ġb": 315,
      "ut": 316,
      "Ġd": 317,
      "ge": 318,
      "mp": 319,
      "Ġm": 320,
      "lo": 321,
      "##": 322,
      "ic": 323,
      "Ġe": 324,
      "nd": 325,
      "ra": 326,
      "la": 327,
      "Ġ\"": 328,
      "ent": 329,
      "Ġself": 330,
      "ed": 331,
      "Ġof": 332,
      "li": 333,
      "int": 334,
      "Ġto": 335,
      "):Ċ": 336,
      "Ġ'": 337,
      "Ġand": 338,
      "co": 339,
      "Ġ#": 340,
      "ss": 341,
      "um": 342,
      "Ġde": 343,
      "Ġfor": 344,
      "ce": 345,
      "un": 346,
      "ame": 347,
      "is": 348,
      "ve": 349,
      "ot": 350,
      "ort": 351,
      "ue": 352,
      "Ġ(": 353,
      "ate": 354,
      "id": 355,
      "ch": 356,
      "ad": 357,
      "ig": 358,
      "ul": 359,
      "il": 360,
      "Ġif": 361,
      ")ĊĊ": 362,
      "ol": 363,
      "rint": 364,
      "----": 365,
      "ĠĠĠĠĠĠĠĠĠĠĠĠĠĠĠĠ": 366,
      "urn": 367,
      "Ġst": 368,
      "ata": 369,
      "ap": 370,
      "turn": 371,
      "==": 372,
      "Ġh": 373,
      "ation": 374,
      "th": 375,
      "Ġth": 376,
      "as": 377,
      "ĠT": 378,
      "__": 379,
      "Ġ+": 380,
      "Ġis": 381,
      "####": 382,
      "te": 383,
      "ĠĠĠĠĠĠĠĠĠĠĠĠĠĠĠ": 384,
      "',": 385,
      "el": 386,
      "\"\"": 387,
      "ri": 388,
      "ma": 389,
      "Ġg": 390,
      "ran": 391,
      "di": 392,
      "mport": 393,
      "ile": 394,
      "Ġreturn": 395,
      "Ġco": 396,
      "Ġv": 397,
      "Ġl": 398,
      "pe": 399,
      "(\"": 400,
      "Ġy": 401,
      "ter": 402,
      "ck": 403,
      "Ġ[": 404,
      ".Ċ": 405,
      "ser": 406,
      "(self": 407,
      "_p": 408,
      "Ġdef": 409,
      "('": 410,
      "rom": 411,
      ")čĊ": 412,
      "et": 413,
      "xt": 414,
      "Ġ-": 415,
      "get": 416,
      ",Ċ": 417,
      "ou": 418,
      "]Ċ": 419,
      "ction": 420,
      "_t": 421,
      "Ġprint": 422,
      "end": 423,
      "ver": 424,
      "ĠS": 425,
      "ode": 426,
      "Ġse": 427,
      "Ġu": 428,
      "Ġas": 429,
      "ow": 430,
      "iz": 431,
      "Ġcon": 432,
      "Ġ==": 433,
      "one": 434,
      "ly": 435,
      "ab": 436,
      "ke": 437,
      "Ġbe": 438,
      "if": 439,
      "ĠC": 440,
      "ĠA": 441,
      "ith": 442,
      "list": 443,
      "ĉĉ": 444,
      "_s": 445,
      "ime": 446,
      "()": 447,
      "ord": 448,
      "put": 449,
      "()Ċ": 450,
      "ht": 451,
      "ĠI": 452,
      ".p": 453,
      "\",": 454,
      "ist": 455,
      "def": 456,
      "name": 457,
      "ir": 458,
      "00": 459,
      ".s": 460,
      "ath": 461,
      "ĠN": 462,
      "im": 463,
      "_f": 464,
      "qu": 465,
      "os": 466,
      "pt": 467,
      "nt": 468,
      "res": 469,
      "ers": 470,
      "ult": 471,
      "ine": 472,
      "ment": 473,
      "data": 474,
      "om": 475,
      "for": 476,
      "Ġte": 477,
      "val": 478,
      "art": 479,
      "od": 480,
      "ĠP": 481,
      "up": 482,
      "ite": 483,
      "am": 484,
      "con": 485,
      "Ġpro": 486,
      "ĠF": 487,
      "and": 488,
      "--------": 489,
      "Ġwith": 490,
      "['": 491,
      "']": 492,
      "))Ċ": 493,
      "Ġex": 494,
      "op": 495,
      "====": 496,
      "Ġan": 497,
      "Ġma": 498,
      "Ġor": 499,
      "import": 500,
      "Ġwh": 501,
      "),": 502,
      "########": 503,
      "app": 504,
      "**": 505,
      "Ġal": 506,
      "Ġ\"\"\"": 507,
      "âĢ": 508,
      "Ġnot": 509,
      "Ġran": 510,
      "Ġthat": 511,
      "ew": 512,
      "ize": 513,
      "ase": 514,
      ":čĊ": 515,
      "Ġx": 516,
      "Ġr": 517,
      "unt": 518,
      "us": 519,
      "ect": 520,
      "set": 521,
      "Ġimport": 522,
      "lass": 523,
      "Ġlo": 524,
      "str": 525,
      "ight": 526,
      "print": 527,
      "Ġme": 528,
      "ces": 529,
      "Ġon": 530,
      "age": 531,
      "ĠM": 532,
      "Ġdata": 533,
      "ity": 534,
      "ĠĠĠĠĠĠĠĠĠĠĠĠĠĠĠĠĠĠĠ": 535,
      "Ġ{": 536,
      "our": 537,
      "ĠD": 538,
      "ure": 539,
      "Ġres": 540,
      "')Ċ": 541,
      "out": 542,
      "ĠR": 543,
      "],": 544,
      "ys": 545,
      "Ġare": 546,
      "ind": 547,
      "ype": 548,
      "mat": 549,
      "ta": 550,
      "Ġit": 551,
      "rue": 552,
      "from": 553,
      "lay": 554,
      "Ġ*": 555,
      "ub": 556,
      "_c": 557,
      "Ġch": 558,
      "Ġnp": 559,
      "\")Ċ": 560,
      "Ġstr": 561,
      "able": 562,
      "lab": 563,
      "Ġel": 564,
      "pl": 565,
      "_n": 566,
      "ive": 567,
      "_b": 568,
      ".c": 569,
      "Ġ:": 570,
      "ĠE": 571,
      "ard": 572,
      "ĠB": 573,
      ".t": 574,
      "rain": 575,
      "red": 576,
      "Ġval": 577,
      "ci": 578,
      "Ġhe": 579,
      "Ġle": 580,
      "ff": 581,
      "append": 582,
      "Ġint": 583,
      "ĠL": 584,
      "all": 585,
      "mple": 586,
      "Ġrange": 587,
      "Ġelse": 588,
      "iv": 589,
      "[i": 590,
      "row": 591,
      "10": 592,
      "Ġwe": 593,
      "ĠThe": 594,
      "Ġnum": 595,
      "(f": 596,
      "dex": 597,
      ".append": 598,
      "(n": 599,
      "\"Ċ": 600,
      "ep": 601,
      "_co": 602,
      "gs": 603,
      "ber": 604,
      "Ġar": 605,
      "Ġfrom": 606,
      "odel": 607,
      "ĊĊĊ": 608,
      "Ġj": 609,
      "que": 610,
      "rent": 611,
      "ill": 612,
      "ave": 613,
      "='": 614,
      "ay": 615,
      "ore": 616,
      "':": 617,
      ".f": 618,
      "per": 619,
      "ry": 620,
      "ant": 621,
      "Ġk": 622,
      "Ġsh": 623,
      "_m": 624,
      "ac": 625,
      "Ġlen": 626,
      "len": 627,
      "][": 628,
      ").": 629,
      "ance": 630,
      "čĊčĊ": 631,
      "_in": 632,
      "(p": 633,
      "ĠW": 634,
      "key": 635,
      "ĠNone": 636,
      "ms": 637,
      "ition": 638,
      "Ġby": 639,
      "_d": 640,
      "label": 641,
      "(s": 642,
      "Ġat": 643,
      "mage": 644,
      "ip": 645,
      "ray": 646,
      "ĠG": 647,
      ".re": 648,
      "ex": 649,
      "Ġ__": 650,
      "alse": 651,
      "Ġen": 652,
      "_di": 653,
      "..": 654,
      "'Ċ": 655,
      "Ġlist": 656,
      "low": 657,
      "ject": 658,
      "Ġ<": 659,
      "Ġ\"\"\"Ċ": 660,
      "ice": 661,
      "20": 662,
      "Ġ%": 663,
      "Ġcol": 664,
      "act": 665,
      "test": 666,
      "mo": 667,
      "ror": 668,
      "ies": 669,
      "Ġcan": 670,
      "ag": 671,
      "lif": 672,
      ".get": 673,
      "mb": 674,
      "ack": 675,
      "Ġpre": 676,
      "Ġso": 677,
      "Ġdi": 678,
      "])Ċ": 679,
      "Ġtime": 680,
      "Ġout": 681,
      "ph": 682,
      "sert": 683,
      "class": 684,
      "(t": 685,
      "lot": 686,
      "Ġne": 687,
      "vi": 688,
      "Ġ>": 689,
      "du": 690,
      "sed": 691,
      "ial": 692,
      "Ġ+=": 693,
      "Ġget": 694,
      "mm": 695,
      "ĠH": 696,
      "Ġthis": 697,
      "add": 698,
      "ated": 699,
      "Ġfile": 700,
      "ok": 701,
      "text": 702,
      "ust": 703,
      "ĠO": 704,
      ".co": 705,
      "oint": 706,
      "_name": 707,
      "ary": 708,
      "ĠĊ": 709,
      "ption": 710,
      "))": 711,
      "._": 712,
      "_data": 713,
      "_id": 714,
      "Ġad": 715,
      "Ġyou": 716,
      "========": 717,
      "ical": 718,
      "_list": 719,
      "ens": 720,
      "ob": 721,
      "ost": 722,
      "cess": 723,
      "Ġtest": 724,
      "_w": 725,
      "ft": 726,
      "ues": 727,
      "ĠĠĠĠĊ": 728,
      "Ġdo": 729,
      ".w": 730,
      "ä¸": 731,
      "_st": 732,
      "par": 733,
      "Ġpl": 734,
      ".n": 735,
      "\":": 736,
      "ĠĠĠĠĠ": 737,
      "ree": 738,
      "ĠÐ": 739,
      "ape": 740,
      "ud": 741,
      "log": 742,
      "=\"": 743,
      "################": 744,
      "----------------": 745,
      "ory": 746,
      "ĠIn": 747,
      "bo": 748,
      "ents": 749,
      "Ġpar": 750,
      "ample": 751,
      "ations": 752,
      "].": 753,
      "ick": 754,
      "ak": 755,
      "Ġname": 756,
      "ses": 757,
      "Ġ/": 758,
      "Ġnew": 759,
      "rans": 760,
      "In": 761,
      "(x": 762,
      "init": 763,
      "ork": 764,
      "__(": 765,
      "ĠTrue": 766,
      "Ġli": 767,
      "gra": 768,
      ".d": 769,
      "Ġcur": 770,
      "Ġresult": 771,
      "tr": 772,
      "ug": 773,
      "pp": 774,
      "ĠĠĠĠĠĠĠĠĠĠĠĠĠĠĠĠĠĠĠĠĠĠĠ": 775,
      "py": 776,
      "Ġpa": 777,
      "ign": 778,
      "Ġro": 779,
      "ach": 780,
      "Ġun": 781,
      "ari": 782,
      "est": 783,
      "():Ċ": 784,
      "ĠU": 785,
      "Ġelif": 786,
      "Ð¾": 787,
      "_re": 788,
      "ther": 789,
      "100": 790,
      "Ġcont": 791,
      "ild": 792,
      "ang": 793,
      "ide": 794,
      "line": 795,
      "([": 796,
      "ls": 797,
      "])": 798,
      "()ĊĊ": 799,
      "rame": 800,
      "cal": 801,
      "cre": 802,
      "Ġall": 803,
      "Ðµ": 804,
      "form": 805,
      "ble": 806,
      "dom": 807,
      "')": 808,
      "plit": 809,
      "ich": 810,
      "uld": 811,
      "ors": 812,
      "fe": 813,
      "unction": 814,
      "are": 815,
      "quest": 816,
      "Ġinput": 817,
      "Ġmat": 818,
      "Ġhave": 819,
      "max": 820,
      "âĢĻ": 821,
      "cur": 822,
      "old": 823,
      "ace": 824,
      "ates": 825,
      "Ð°": 826,
      "layer": 827,
      "umn": 828,
      "ence": 829,
      "Ġcomp": 830,
      "min": 831,
      "''": 832,
      "pen": 833,
      "value": 834,
      "ress": 835,
      "ext": 836,
      "):čĊ": 837,
      "Ġob": 838,
      "ĠĠĠĠĠĠĠĠĠĠĠĠĠĠĠĠĠĠĠĠĠĠĠĠĠĠĠĠĠĠĠĠ": 839,
      "Ġset": 840,
      "Ġac": 841,
      ".st": 842,
      "rite": 843,
      ".b": 844,
      "orm": 845,
      "heck": 846,
      "ded": 847,
      "ren": 848,
      "em": 849,
      "ual": 850,
      "Ġyour": 851,
      "Ġra": 852,
      "we": 853,
      "Ġline": 854,
      "array": 855,
      "Ġvalue": 856,
      "Ġwill": 857,
      "ute": 858,
      "loat": 859,
      "[\"": 860,
      "ll": 861,
      "ound": 862,
      "son": 863,
      "hape": 864,
      "ĠFalse": 865,
      "Ġ_": 866,
      "ast": 867,
      "format": 868,
      "ĠV": 869,
      "time": 870,
      "Ġla": 871,
      "ong": 872,
      "ï¼": 873,
      "ont": 874,
      "ener": 875,
      "12": 876,
      "word": 877,
      "own": 878,
      "fo": 879,
      "]ĊĊ": 880,
      "True": 881,
      "//": 882,
      "(d": 883,
      "pon": 884,
      "input": 885,
      "****": 886,
      "irst": 887,
      "ĠTh": 888,
      "item": 889,
      "les": 890,
      "Ġ[]Ċ": 891,
      ".add": 892,
      "cl": 893,
      "und": 894,
      "thod": 895,
      "ĠRe": 896,
      "arn": 897,
      "cept": 898,
      "_size": 899,
      "sv": 900,
      "main": 901,
      "fig": 902,
      "url": 903,
      "_file": 904,
      "ax": 905,
      "lect": 906,
      "ER": 907,
      "25": 908,
      "iel": 909,
      "Ġper": 910,
      ".g": 911,
      "arch": 912,
      ")čĊčĊ": 913,
      "ix": 914,
      "ise": 915,
      "av": 916,
      "args": 917,
      "Ġhas": 918,
      "oc": 919,
      "Ġab": 920,
      "vent": 921,
      "Ġos": 922,
      "sh": 923,
      "ield": 924,
      "Ġmodel": 925,
      "Ġpy": 926,
      "The": 927,
      "ould": 928,
      "ution": 929,
      "ines": 930,
      "col": 931,
      "igh": 932,
      "Ġwhich": 933,
      "rib": 934,
      "(c": 935,
      "rect": 936,
      "Ġup": 937,
      "Ġmo": 938,
      "ump": 939,
      "Ġnumber": 940,
      "gth": 941,
      "lace": 942,
      "Ð¸": 943,
      "rror": 944,
      "eat": 945,
      "ings": 946,
      "pro": 947,
      "ÑĤ": 948,
      "Ġ{}": 949,
      "((": 950,
      "Ġmax": 951,
      "ty": 952,
      "IN": 953,
      "Ġplt": 954,
      "Ġopen": 955,
      "ous": 956,
      "arg": 957,
      "idth": 958,
      ".m": 959,
      "file": 960,
      "au": 961,
      "ĠâĢ": 962,
      "[:": 963,
      "Ġbo": 964,
      "core": 965,
      "Ġdis": 966,
      ".set": 967,
      "_g": 968,
      "Ġtext": 969,
      "rid": 970,
      "Error": 971,
      "_h": 972,
      "Re": 973,
      "date": 974,
      "che": 975,
      "reate": 976,
      "ask": 977,
      "ne": 978,
      "ator": 979,
      "ps": 980,
      "roup": 981,
      ".ĊĊ": 982,
      "Ġspe": 983,
      "Ġuser": 984,
      "ink": 985,
      "Ġwas": 986,
      "Ġkey": 987,
      "iter": 988,
      "atch": 989,
      "itle": 990,
      "arget": 991,
      "_path": 992,
      "(m": 993,
      "Ġone": 994,
      "!=": 995,
      "lement": 996,
      "Ġadd": 997,
      "loc": 998,
      "user": 999,
      "\"\"\"Ċ": 1000,
      "so": 1001,
      "dict": 1002,
      "(Ċ": 1003,
      "port": 1004,
      "(i": 1005,
      "load": 1006,
      "read": 1007,
      "osition": 1008,
      "sc": 1009,
      "_e": 1010,
      "Ġsub": 1011,
      "ans": 1012,
      "ures": 1013,
      "ctions": 1014,
      "inal": 1015,
      "sent": 1016,
      "ose": 1017,
      "raw": 1018,
      "Ġsy": 1019,
      "Ġqu": 1020,
      "Ġword": 1021,
      "error": 1022,
      ".__": 1023,
      "oth": 1024,
      "Ġstart": 1025,
      "çļ": 1026,
      "ange": 1027,
      "':Ċ": 1028,
      "Ġwhile": 1029,
      "ear": 1030,
      "ain": 1031,
      "çļĦ": 1032,
      "ery": 1033,
      "ĠĠĠĠĠĠĠĠĊ": 1034,
      "its": 1035,
      "Ġsp": 1036,
      "ome": 1037,
      ".con": 1038,
      "Ġus": 1039,
      "Ġid": 1040,
      "_to": 1041,
      "(b": 1042,
      "','": 1043,
      "None": 1044,
      "tain": 1045,
      "Ġmin": 1046,
      "Ġcomm": 1047,
      "Ġsu": 1048,
      "Ġfunction": 1049,
      "Data": 1050,
      "og": 1051,
      "ãģ": 1052,
      "Ġlog": 1053,
      "ters": 1054,
      "ĠĠĠĠĠĠ": 1055,
      "Ġother": 1056,
      ".in": 1057,
      "ark": 1058,
      "ess": 1059,
      "ĠK": 1060,
      "ĉĉĉ": 1061,
      "))ĊĊ": 1062,
      "=True": 1063,
      "\",Ċ": 1064,
      "Ġapp": 1065,
      ")ĊĊĊ": 1066,
      "type": 1067,
      "Ġ!=": 1068,
      "stance": 1069,
      "umber": 1070,
      "Ġinter": 1071,
      "return": 1072,
      "Ġrow": 1073,
      "\"]": 1074,
      "Ġpart": 1075,
      "ges": 1076,
      "Ġuse": 1077,
      "plot": 1078,
      "vel": 1079,
      "_o": 1080,
      "ions": 1081,
      "Ġbut": 1082,
      "Ġcount": 1083,
      "_r": 1084,
      "ec": 1085,
      "'s": 1086,
      "19": 1087,
      "rix": 1088,
      "Ġz": 1089,
      "oin": 1090,
      ".as": 1091,
      "ault": 1092,
      "',Ċ": 1093,
      "Ġdf": 1094,
      "Ġtheir": 1095,
      "ell": 1096,
      "lock": 1097,
      "_x": 1098,
      "result": 1099,
      "Ġclass": 1100,
      "Ġax": 1101,
      "Ð¾Ð": 1102,
      "50": 1103,
      "_se": 1104,
      "_con": 1105,
      "uth": 1106,
      "(len": 1107,
      "led": 1108,
      "ON": 1109,
      "Ġact": 1110,
      "ST": 1111,
      "ÑĢ": 1112,
      "(data": 1113,
      "ics": 1114,
      "11": 1115,
      "pect": 1116,
      "ssage": 1117,
      "AT": 1118,
      "Ġnode": 1119,
      "Ġend": 1120,
      "ding": 1121,
      "ton": 1122,
      "Ġoutput": 1123,
      "ename": 1124,
      "Ġmore": 1125,
      "_test": 1126,
      "):": 1127,
      "Ñģ": 1128,
      "ger": 1129,
      "Ġ\\": 1130,
      "ool": 1131,
      "ĠY": 1132,
      "da": 1133,
      "count": 1134,
      "ating": 1135,
      "ĠThis": 1136,
      "ices": 1137,
      "_dict": 1138,
      "Ġtrain": 1139,
      "_y": 1140,
      "ml": 1141,
      "nder": 1142,
      "Ġdif": 1143,
      "RE": 1144,
      "qual": 1145,
      "ract": 1146,
      "\"\"\"": 1147,
      "Ġ@": 1148,
      "umpy": 1149,
      "ilename": 1150,
      "ia": 1151,
      "\")": 1152,
      "Ġno": 1153,
      "Ġlabel": 1154,
      "Ð½": 1155,
      "Ġgo": 1156,
      "ĠJ": 1157,
      "_de": 1158,
      "Ġthey": 1159,
      "ific": 1160,
      "().": 1161,
      "ann": 1162,
      "St": 1163,
      "Ġcurrent": 1164,
      "Ġeach": 1165,
      "Ġdist": 1166,
      "List": 1167,
      "lose": 1168,
      ".ex": 1169,
      "ative": 1170,
      "rop": 1171,
      "here": 1172,
      "LE": 1173,
      "thon": 1174,
      ".x": 1175,
      "param": 1176,
      "img": 1177,
      "Ġrandom": 1178,
      "_train": 1179,
      "order": 1180,
      "code": 1181,
      "_val": 1182,
      "]:Ċ": 1183,
      "================": 1184,
      "ĠX": 1185,
      "Ġbet": 1186,
      "Ġman": 1187,
      "ld": 1188,
      "âĢĻs": 1189,
      "temp": 1190,
      "Ġtemp": 1191,
      "wo": 1192,
      "Ġtype": 1193,
      "ie": 1194,
      "False": 1195,
      "Ġfirst": 1196,
      "Ġtry": 1197,
      "output": 1198,
      "Ġtrans": 1199,
      "Ġindex": 1200,
      "()čĊ": 1201,
      "pre": 1202,
      ".read": 1203,
      "\".": 1204,
      "Ġinto": 1205,
      "Ġimage": 1206,
      ".assert": 1207,
      "join": 1208,
      "Ġcal": 1209,
      ".de": 1210,
      ".se": 1211,
      "ponse": 1212,
      "201": 1213,
      "Ġsup": 1214,
      "16": 1215,
      "ument": 1216,
      ".path": 1217,
      "ource": 1218,
      "Ġassert": 1219,
      "Ġwork": 1220,
      "Ġì": 1221,
      "df": 1222,
      "Ġgra": 1223,
      "Ġpath": 1224,
      "Ġsome": 1225,
      "lp": 1226,
      "Ġpass": 1227,
      "round": 1228,
      "cy": 1229,
      "åĪ": 1230,
      "åı": 1231,
      "ï¼Į": 1232,
      "olution": 1233,
      "image": 1234,
      "sp": 1235,
      "lob": 1236,
      "ater": 1237,
      "plt": 1238,
      "Ġdate": 1239,
      "np": 1240,
      "')ĊĊ": 1241,
      "ĉif": 1242,
      "io": 1243,
      "),Ċ": 1244,
      "_l": 1245,
      "place": 1246,
      "move": 1247,
      "15": 1248,
      "://": 1249,
      "lib": 1250,
      "200": 1251,
      "æķ": 1252,
      "yp": 1253,
      "oints": 1254,
      "(input": 1255,
      "cond": 1256,
      ".write": 1257,
      ".shape": 1258,
      "ifi": 1259,
      "ĠSt": 1260,
      "reak": 1261,
      "ass": 1262,
      "Ġused": 1263,
      "ib": 1264,
      "_v": 1265,
      "'.": 1266,
      "serv": 1267,
      "cul": 1268,
      "ward": 1269,
      "game": 1270,
      "cord": 1271,
      "ariable": 1272,
      "uct": 1273,
      "_time": 1274,
      "string": 1275,
      "indow": 1276,
      "cent": 1277,
      "OR": 1278,
      ".S": 1279,
      "30": 1280,
      "Ġent": 1281,
      "ude": 1282,
      ".r": 1283,
      "ĠĠĠĠĠĠĠĠĠĠĠĠĠĠĠĠĠĠĠĠĠĠĠĠ": 1284,
      "_ch": 1285,
      "\":Ċ": 1286,
      "ities": 1287,
      "Ġread": 1288,
      "ID": 1289,
      "Ġpd": 1290,
      "\")ĊĊ": 1291,
      "Ġobject": 1292,
      "ility": 1293,
      "ef": 1294,
      "Ġnumpy": 1295,
      "_index": 1296,
      "Ġcv": 1297,
      "Ġover": 1298,
      "Ġreg": 1299,
      "Ġexp": 1300,
      "Ġmethod": 1301,
      "Ġ->": 1302,
      "())Ċ": 1303,
      "_me": 1304,
      "Ġexcept": 1305,
      "AR": 1306,
      "ments": 1307,
      "]čĊ": 1308,
      "Ġim": 1309,
      "num": 1310,
      "vers": 1311,
      "ns": 1312,
      "ng": 1313,
      "Ġph": 1314,
      "left": 1315,
      "items": 1316,
      "to": 1317,
      ".ran": 1318,
      "(a": 1319,
      "qui": 1320,
      "vert": 1321,
      "Ġsys": 1322,
      "Ġcheck": 1323,
      "EN": 1324,
      "iss": 1325,
      "ateg": 1326,
      ".y": 1327,
      "Ġfloat": 1328,
      "ull": 1329,
      "=None": 1330,
      "Ġwhen": 1331,
      "Ġalso": 1332,
      "Ġsk": 1333,
      "{}": 1334,
      ".C": 1335,
      "head": 1336,
      "ormal": 1337,
      "Ġmay": 1338,
      "Ġcor": 1339,
      "Ġshould": 1340,
      "Name": 1341,
      "tal": 1342,
      "rit": 1343,
      "Ġthan": 1344,
      "Ġtra": 1345,
      "_count": 1346,
      "âĢĿ": 1347,
      "Ġgener": 1348,
      "rip": 1349,
      "Ġstring": 1350,
      "Ġag": 1351,
      "ake": 1352,
      "ern": 1353,
      "Ġcolumn": 1354,
      "################################": 1355,
      "lic": 1356,
      "index": 1357,
      "ible": 1358,
      "las": 1359,
      "Ġrequest": 1360,
      "32": 1361,
      "Ġany": 1362,
      "tt": 1363,
      "æķ°": 1364,
      "Ġstud": 1365,
      "Ġsum": 1366,
      "ule": 1367,
      "ced": 1368,
      "object": 1369,
      "Ġstate": 1370,
      "ams": 1371,
      "duct": 1372,
      ".T": 1373,
      "']Ċ": 1374,
      "ĉĉĉĉ": 1375,
      "atus": 1376,
      "gn": 1377,
      "ock": 1378,
      "Ġtf": 1379,
      "play": 1380,
      "],Ċ": 1381,
      ".array": 1382,
      "ays": 1383,
      "Ġitem": 1384,
      "ĠĠĠĠĠĠĠĠĠĠĠĠĠĠĠĠĠĠĠĠĠĠĠĠĠĠĠ": 1385,
      "000": 1386,
      "work": 1387,
      "18": 1388,
      "_a": 1389,
      "ĉself": 1390,
      "ugh": 1391,
      "Ġonly": 1392,
      "Ġvalues": 1393,
      "mit": 1394,
      "base": 1395,
      "cial": 1396,
      "ception": 1397,
      "iven": 1398,
      "unc": 1399,
      "keys": 1400,
      "ght": 1401,
      "_pro": 1402,
      "ĠEx": 1403,
      "stem": 1404,
      "_type": 1405,
      "Ġev": 1406,
      "ood": 1407,
      "\")čĊ": 1408,
      "json": 1409,
      "--------------------------------": 1410,
      ")):Ċ": 1411,
      "Ġthere": 1412,
      "Ġbu": 1413,
      "SE": 1414,
      "Ġhow": 1415,
      "range": 1416,
      "ai": 1417,
      "Ġmain": 1418,
      "=False": 1419,
      "Ġdiffe": 1420,
      "Ġsize": 1421,
      "Ġbase": 1422,
      "Ġfind": 1423,
      "_col": 1424,
      "Ġright": 1425,
      "(r": 1426,
      "als": 1427,
      "wer": 1428,
      "Co": 1429,
      "ween": 1430,
      "ils": 1431,
      "Ġbreak": 1432,
      ".e": 1433,
      "Ġ**": 1434,
      "=[": 1435,
      "Ġ|": 1436,
      "Ġraise": 1437,
      "ĠIf": 1438,
      "mbda": 1439,
      "Ġwere": 1440,
      "Ġ`": 1441,
      "start": 1442,
      "Ġhelp": 1443,
      "\",\"": 1444,
      "Ġ<=": 1445,
      "Ġchar": 1446,
      "ãĤ": 1447,
      "Ġext": 1448,
      "Ġarg": 1449,
      "Ġusing": 1450,
      ".h": 1451,
      "der": 1452,
      "otal": 1453,
      "ffect": 1454,
      "lient": 1455,
      "}Ċ": 1456,
      "Ġpe": 1457,
      "Ġabout": 1458,
      "...": 1459,
      "atter": 1460,
      "Ġimp": 1461,
      "Ġ''": 1462,
      "********": 1463,
      "Ġtwo": 1464,
      "Con": 1465,
      "Th": 1466,
      "Ex": 1467,
      "ins": 1468,
      "40": 1469,
      "_len": 1470,
      "Ġhigh": 1471,
      "ero": 1472,
      "ĉprint": 1473,
      "fter": 1474,
      "[:,": 1475,
      "path": 1476,
      "wh": 1477,
      "Ġthem": 1478,
      "Ġmy": 1479,
      "Ġthese": 1480,
      "orch": 1481,
      "size": 1482,
      "Ġmake": 1483,
      "_node": 1484,
      "ts": 1485,
      "no": 1486,
      "Ġtarget": 1487,
      "Ð»": 1488,
      "alue": 1489,
      "view": 1490,
      "Ġincl": 1491,
      "ular": 1492,
      "Ġ)Ċ": 1493,
      "Ġjson": 1494,
      "utton": 1495,
      "ameters": 1496,
      "Ġ.": 1497,
      "lu": 1498,
      "Ġdict": 1499,
      "åħ": 1500,
      "div": 1501,
      "Ġcreate": 1502,
      "Ġtotal": 1503,
      "dir": 1504,
      ".find": 1505,
      "ĠCon": 1506,
      "root": 1507,
      "ting": 1508,
      "____": 1509,
      "rice": 1510,
      "Ġ,": 1511,
      "Ġrun": 1512,
      "gram": 1513,
      "Ġneed": 1514,
      "(re": 1515,
      "ĠQ": 1516,
      "_value": 1517,
      "ctor": 1518,
      ".split": 1519,
      "amp": 1520,
      "ody": 1521,
      "AL": 1522,
      "rough": 1523,
      "(y": 1524,
      "ĠâĢľ": 1525,
      "ars": 1526,
      ".data": 1527,
      "Ġcl": 1528,
      "Ġits": 1529,
      "Ġbetween": 1530,
      "cle": 1531,
      "utf": 1532,
      "[-": 1533,
      "Ġcolor": 1534,
      "ause": 1535,
      "_num": 1536,
      "Ġkn": 1537,
      "ĉreturn": 1538,
      "Ġunder": 1539,
      ".me": 1540,
      "Ġ['": 1541,
      "nect": 1542,
      "#Ċ": 1543,
      "ä»": 1544,
      "eatures": 1545,
      "Ġcontin": 1546,
      "oss": 1547,
      ";Ċ": 1548,
      "inter": 1549,
      "Ġve": 1550,
      "\\n": 1551,
      ">>": 1552,
      "Ġap": 1553,
      "(l": 1554,
      "æľ": 1555,
      "Ġhead": 1556,
      "Ġsc": 1557,
      "ves": 1558,
      "ĠCh": 1559,
      "formation": 1560,
      "Ġchild": 1561,
      "Pro": 1562,
      "Ġinte": 1563,
      "Ġarray": 1564,
      "erson": 1565,
      "ian": 1566,
      "ized": 1567,
      "graph": 1568,
      "itial": 1569,
      "13": 1570,
      "Ġgame": 1571,
      "Ġcons": 1572,
      "ĠĠĠĠĠĠĠĠĠ": 1573,
      "14": 1574,
      ".sh": 1575,
      "dd": 1576,
      "Ġass": 1577,
      "Equal": 1578,
      "File": 1579,
      "ify": 1580,
      ".com": 1581,
      "_mat": 1582,
      "ĠIt": 1583,
      "arning": 1584,
      "ollow": 1585,
      "ĠĠĠĠĠĠĠĠĠĠĠĠ": 1586,
      "very": 1587,
      "mer": 1588,
      "htt": 1589,
      "ries": 1590,
      "ES": 1591,
      "ĠCo": 1592,
      "ner": 1593,
      "Ġour": 1594,
      "ilter": 1595,
      ".is": 1596,
      "izer": 1597,
      "amples": 1598,
      "Ġerror": 1599,
      "ient": 1600,
      "lobal": 1601,
      "ats": 1602,
      "oken": 1603,
      "')čĊ": 1604,
      ".name": 1605,
      "_of": 1606,
      "Ġwhere": 1607,
      "Ġbeen": 1608,
      "ler": 1609,
      "att": 1610,
      "IT": 1611,
      "ful": 1612,
      "Ġpos": 1613,
      "60": 1614,
      "creen": 1615,
      "ict": 1616,
      "velo": 1617,
      "face": 1618,
      "åĲ": 1619,
      "_df": 1620,
      "Ġsuch": 1621,
      "Ġlike": 1622,
      "Ġnext": 1623,
      "Ġelement": 1624,
      "ature": 1625,
      "Ġthen": 1626,
      "ging": 1627,
      "Ġdefault": 1628,
      "(X": 1629,
      "split": 1630,
      "Ġcontain": 1631,
      "Ġyear": 1632,
      "cale": 1633,
      "_text": 1634,
      "Ġsign": 1635,
      "uthor": 1636,
      "Ġoff": 1637,
      "])ĊĊ": 1638,
      "(np": 1639,
      "ists": 1640,
      "(),": 1641,
      "*-": 1642,
      "Ġthrough": 1643,
      "ote": 1644,
      "AN": 1645,
      "mages": 1646,
      "mail": 1647,
      "els": 1648,
      "unter": 1649,
      "(w": 1650,
      "(e": 1651,
      "ĠPro": 1652,
      "=(": 1653,
      "(num": 1654,
      "uple": 1655,
      ".py": 1656,
      "Ġspec": 1657,
      "leep": 1658,
      "Ġimg": 1659,
      "Ġprocess": 1660,
      "Ġ\",": 1661,
      "ey": 1662,
      "Ġrel": 1663,
      "Ġpri": 1664,
      "~~": 1665,
      "layers": 1666,
      "ãĥ": 1667,
      "Ġë": 1668,
      "PI": 1669,
      "Ġq": 1670,
      "Ġ>=": 1671,
      "AM": 1672,
      "arr": 1673,
      "(g": 1674,
      "ision": 1675,
      "Ġleft": 1676,
      "dition": 1677,
      "è¿": 1678,
      ".close": 1679,
      "Ġwho": 1680,
      "search": 1681,
      "Ġgroup": 1682,
      "Ġlast": 1683,
      "ords": 1684,
      "_input": 1685,
      "_by": 1686,
      "Ġmost": 1687,
      "oice": 1688,
      "ww": 1689,
      "ted": 1690,
      "ages": 1691,
      "ved": 1692,
      ".z": 1693,
      "rence": 1694,
      "Ġcode": 1695,
      "_label": 1696,
      "ire": 1697,
      "ople": 1698,
      "_dir": 1699,
      "Ġind": 1700,
      "255": 1701,
      "onth": 1702,
      "Ġargs": 1703,
      "Ġgiven": 1704,
      "Ġpygame": 1705,
      "CT": 1706,
      "'],": 1707,
      "reat": 1708,
      "))čĊ": 1709,
      "ights": 1710,
      "ĠReturn": 1711,
      "Ġresults": 1712,
      "uff": 1713,
      "board": 1714,
      "Ġver": 1715,
      ".assertEqual": 1716,
      "):ĊĊ": 1717,
      "ensor": 1718,
      "æĸ": 1719,
      "ets": 1720,
      "ness": 1721,
      "velop": 1722,
      "hed": 1723,
      "ĠWh": 1724,
      "Ġdep": 1725,
      "Ġfound": 1726,
      "Ġans": 1727,
      "eature": 1728,
      "[j": 1729,
      "RO": 1730,
      "pha": 1731,
      "åŃ": 1732,
      "64": 1733,
      "Ġurl": 1734,
      "ql": 1735,
      ".load": 1736,
      "ail": 1737,
      "Ġ-*-": 1738,
      "Ġmath": 1739,
      "Ġvalid": 1740,
      "eros": 1741,
      "wargs": 1742,
      "po": 1743,
      "values": 1744,
      "ency": 1745,
      "ower": 1746,
      "(st": 1747,
      "_state": 1748,
      "Ġback": 1749,
      "ĠSe": 1750,
      "17": 1751,
      "Ġav": 1752,
      "ìĿ": 1753,
      "idd": 1754,
      "ish": 1755,
      "other": 1756,
      "yn": 1757,
      "last": 1758,
      ".txt": 1759,
      "Ġwhat": 1760,
      "ĉfor": 1761,
      "scri": 1762,
      "Ġdifferent": 1763,
      "ssion": 1764,
      ".l": 1765,
      "To": 1766,
      "sor": 1767,
      "ization": 1768,
      "Ġpol": 1769,
      "Ch": 1770,
      "Ġevent": 1771,
      "Ġpoint": 1772,
      "Ġresponse": 1773,
      "Frame": 1774,
      "Ar": 1775,
      "Ġcase": 1776,
      "bin": 1777,
      "Ġ'''Ċ": 1778,
      "_ex": 1779,
      "(h": 1780,
      "ek": 1781,
      "Ġ('": 1782,
      "ru": 1783,
      "height": 1784,
      "'t": 1785,
      "update": 1786,
      "eg": 1787,
      "(row": 1788,
      "html": 1789,
      "_par": 1790,
      "(str": 1791,
      "Ġform": 1792,
      "orted": 1793,
      "Ġoption": 1794,
      "ulation": 1795,
      "Ġfollow": 1796,
      "older": 1797,
      "99": 1798,
      "'].": 1799,
      "Ġtorch": 1800,
      "Ġsame": 1801,
      "des": 1802,
      "çĶ": 1803,
      "Ġ{Ċ": 1804,
      "_S": 1805,
      "ĠAr": 1806,
      "Ġcre": 1807,
      "Ġrequi": 1808,
      "umer": 1809,
      "alth": 1810,
      "vice": 1811,
      "Ġstep": 1812,
      "ste": 1813,
      "Ġsur": 1814,
      "fore": 1815,
      "valid": 1816,
      "pr": 1817,
      "Ġsecond": 1818,
      "ĠWe": 1819,
      "gest": 1820,
      "orld": 1821,
      "Ġactiv": 1822,
      "_key": 1823,
      ".ch": 1824,
      "enter": 1825,
      "lable": 1826,
      "Ġmessage": 1827,
      "resh": 1828,
      "train": 1829,
      "tent": 1830,
      "Ġhand": 1831,
      "my": 1832,
      "Ġdoes": 1833,
      "?Ċ": 1834,
      "come": 1835,
      "Ġdes": 1836,
      "env": 1837,
      "Ñĥ": 1838,
      "Ġprovi": 1839,
      "Ġshow": 1840,
      "_set": 1841,
      "riter": 1842,
      "etwork": 1843,
      "air": 1844,
      "back": 1845,
      "DE": 1846,
      "rol": 1847,
      "Ð°Ð": 1848,
      "with": 1849,
      "ash": 1850,
      "En": 1851,
      "let": 1852,
      "Ġplayer": 1853,
      "Ġ--": 1854,
      "Ġtable": 1855,
      "acy": 1856,
      "river": 1857,
      "è¯": 1858,
      "ptim": 1859,
      "(int": 1860,
      "instance": 1861,
      "Ġdatetime": 1862,
      "lection": 1863,
      "bers": 1864,
      "Ġ\\Ċ": 1865,
      "UT": 1866,
      "Ġwould": 1867,
      "Node": 1868,
      "ĠUn": 1869,
      "_C": 1870,
      ".plot": 1871,
      "open": 1872,
      "verage": 1873,
      "Ġtop": 1874,
      "ait": 1875,
      "verse": 1876,
      "Ġfield": 1877,
      "Ġposition": 1878,
      "Ġlength": 1879,
      "Ġloc": 1880,
      "Ġcommand": 1881,
      "lean": 1882,
      "Ġmust": 1883,
      "_str": 1884,
      "ä¸ª": 1885,
      "Ġorder": 1886,
      "lease": 1887,
      "Ġinformation": 1888,
      "'ĊĊ": 1889,
      "Ġter": 1890,
      "Ġcontinue": 1891,
      "box": 1892,
      "lower": 1893,
      "Ġmult": 1894,
      "else": 1895,
      "Ġload": 1896,
      "uring": 1897,
      "ç»": 1898,
      "ches": 1899,
      "acter": 1900,
      "gh": 1901,
      "ense": 1902,
      "ression": 1903,
      "Ġmod": 1904,
      "pected": 1905,
      "=self": 1906,
      "Ġ{'": 1907,
      "lambda": 1908,
      "Ġfe": 1909,
      "Ġed": 1910,
      "ural": 1911,
      "24": 1912,
      "Ġsm": 1913,
      "med": 1914,
      "utes": 1915,
      "Ġdb": 1916,
      "ĠList": 1917,
      "è¡": 1918,
      "ox": 1919,
      "ants": 1920,
      ".par": 1921,
      "_for": 1922,
      "Ġdevelop": 1923,
      "Ġroot": 1924,
      "ross": 1925,
      "ĠAn": 1926,
      "sg": 1927,
      "Ġ&": 1928,
      "ning": 1929,
      "not": 1930,
      "Ġvariable": 1931,
      "ÐµÐ": 1932,
      "Ġplot": 1933,
      "late": 1934,
      "Ġfact": 1935,
      "Ġcomple": 1936,
      "ãĢ": 1937,
      "(file": 1938,
      "(-": 1939,
      "Ġemp": 1940,
      "the": 1941,
      "ha": 1942,
      "Ġdec": 1943,
      "ons": 1944,
      "comp": 1945,
      "Type": 1946,
      "Ġchange": 1947,
      "ä½": 1948,
      "Ġ(\"": 1949,
      "ric": 1950,
      ",y": 1951,
      "_lo": 1952,
      "ze": 1953,
      "axis": 1954,
      "01": 1955,
      "å¤": 1956,
      "ĠFor": 1957,
      "ä¸Ģ": 1958,
      "_P": 1959,
      "äº": 1960,
      "Ġafter": 1961,
      "Ġdirect": 1962,
      "map": 1963,
      ".time": 1964,
      "ĉdef": 1965,
      "Ġsystem": 1966,
      "ank": 1967,
      "comm": 1968,
      "pos": 1969,
      "day": 1970,
      "_model": 1971,
      "ctionary": 1972,
      "Ġmany": 1973,
      "lim": 1974,
      "ccess": 1975,
      "æĺ": 1976,
      "_i": 1977,
      "ique": 1978,
      "Ġmove": 1979,
      ".col": 1980,
      "ational": 1981,
      "Ġoper": 1982,
      "Ġeffect": 1983,
      "obj": 1984,
      "ential": 1985,
      "tic": 1986,
      "ET": 1987,
      "ifier": 1988,
      "Ġpeople": 1989,
      "'''Ċ": 1990,
      "ĊĊĊĊ": 1991,
      "Ġtyp": 1992,
      "Ġincre": 1993,
      "Ġcar": 1994,
      "angle": 1995,
      "Ġsim": 1996,
      "new": 1997,
      "_score": 1998,
      "plic": 1999,
      "Ġconfig": 2000,
      ".arg": 2001,
      "Se": 2002,
      "tom": 2003,
      ".M": 2004,
      "learn": 2005,
      "model": 2006,
      "Ġvis": 2007,
      "Ġlong": 2008,
      "Ġcall": 2009,
      "perty": 2010,
      ".join": 2011,
      "gre": 2012,
      "Wh": 2013,
      "Ġwidth": 2014,
      "logy": 2015,
      "ingle": 2016,
      "_date": 2017,
      "Test": 2018,
      "ving": 2019,
      "method": 2020,
      "Ġ}": 2021,
      "Ġaxis": 2022,
      "ache": 2023,
      "Ġmean": 2024,
      "arent": 2025,
      "Ġwords": 2026,
      "ically": 2027,
      ":ĊĊ": 2028,
      "(v": 2029,
      "ordin": 2030,
      "Ġformat": 2031,
      "Ġtok": 2032,
      ".show": 2033,
      "ten": 2034,
      "å®": 2035,
      "Ġdown": 2036,
      "Ġexample": 2037,
      "Time": 2038,
      "_pre": 2039,
      "Ñĭ": 2040,
      "'])Ċ": 2041,
      "Ġdataset": 2042,
      "Ġexper": 2043,
      "]]": 2044,
      "Ġbest": 2045,
      "Ġdel": 2046,
      "any": 2047,
      "\"\"\"ĊĊ": 2048,
      "tring": 2049,
      "ĊĠĠĠĠĊ": 2050,
      "Ġglobal": 2051,
      "lag": 2052,
      "ally": 2053,
      "(\"\\": 2054,
      "Ġiter": 2055,
      ".text": 2056,
      "Ñı": 2057,
      ".random": 2058,
      "sum": 2059,
      "quence": 2060,
      "\",čĊ": 2061,
      "22": 2062,
      "Ġframe": 2063,
      "AC": 2064,
      "Ġbec": 2065,
      ".csv": 2066,
      "Par": 2067,
      "ĠReturns": 2068,
      "server": 2069,
      "Ġsee": 2070,
      "Ġpartic": 2071,
      "(con": 2072,
      "ION": 2073,
      ",'": 2074,
      "IM": 2075,
      "Ġ\"\"\"ĊĊ": 2076,
      "Ġsuper": 2077,
      "Ġgen": 2078,
      "(list": 2079,
      "ited": 2080,
      "scription": 2081,
      "ca": 2082,
      "itive": 2083,
      "ily": 2084,
      ".cur": 2085,
      "_pos": 2086,
      "uch": 2087,
      "_info": 2088,
      "80": 2089,
      "mary": 2090,
      "åĩ": 2091,
      "ume": 2092,
      "atic": 2093,
      "Ġaction": 2094,
      "ighb": 2095,
      "nection": 2096,
      "right": 2097,
      "Col": 2098,
      "color": 2099,
      "gy": 2100,
      "ffic": 2101,
      "lete": 2102,
      ".zeros": 2103,
      "Ġscore": 2104,
      "_T": 2105,
      "gan": 2106,
      "Ġes": 2107,
      "ds": 2108,
      "Ġvari": 2109,
      "DO": 2110,
      "Ġcap": 2111,
      "\"ĊĊ": 2112,
      ".pre": 2113,
      "rt": 2114,
      "Ġjust": 2115,
      "float": 2116,
      "This": 2117,
      "_image": 2118,
      "]),": 2119,
      "abel": 2120,
      "Ġfiles": 2121,
      "Ġ'__": 2122,
      "frame": 2123,
      "iron": 2124,
      "Ġcalcul": 2125,
      ".v": 2126,
      "ined": 2127,
      "_length": 2128,
      "23": 2129,
      "Ġref": 2130,
      "rc": 2131,
      "IG": 2132,
      "ĠDe": 2133,
      "_url": 2134,
      "Ġanal": 2135,
      "Ġmark": 2136,
      "iod": 2137,
      "ances": 2138,
      "Ġisinstance": 2139,
      "Ġret": 2140,
      "rial": 2141,
      "Ġparser": 2142,
      "umns": 2143,
      "requ": 2144,
      "Ġpython": 2145,
      "Ġest": 2146,
      "uments": 2147,
      "ability": 2148,
      "action": 2149,
      "ough": 2150,
      "mount": 2151,
      "ouse": 2152,
      "ension": 2153,
      "Ġevery": 2154,
      "ences": 2155,
      "Ġinf": 2156,
      "cies": 2157,
      ".sub": 2158,
      "ÑĮ": 2159,
      "cu": 2160,
      "plotlib": 2161,
      "_string": 2162,
      "Ġ'''": 2163,
      "Ġfig": 2164,
      "OL": 2165,
      "ĠĠĠĠĠĠĠĠĠĠĠĠĠĠĠĠĠĠĠĠĠĠĠĠĠĠĠĠĠĠĠ": 2166,
      "query": 2167,
      ".,": 2168,
      "ecute": 2169,
      "Ġmatrix": 2170,
      ".log": 2171,
      "Ġ{}Ċ": 2172,
      "Ġinitial": 2173,
      "_csv": 2174,
      "kwargs": 2175,
      "mbol": 2176,
      "rection": 2177,
      "istory": 2178,
      "33": 2179,
      "oup": 2180,
      "Ġperson": 2181,
      "ather": 2182,
      "ossible": 2183,
      "Ġpop": 2184,
      "(df": 2185,
      "Ġsi": 2186,
      "Ġmap": 2187,
      "Ġfilename": 2188,
      "Ġcsv": 2189,
      "(se": 2190,
      "Ġproble": 2191,
      "(name": 2192,
      "lack": 2193,
      "Id": 2194,
      "lasses": 2195,
      "current": 2196,
      "Ġgraph": 2197,
      "ili": 2198,
      "Ġwell": 2199,
      "(path": 2200,
      "umerate": 2201,
      "ron": 2202,
      "Ġsci": 2203,
      "Ġdoc": 2204,
      "Ġheight": 2205,
      "angu": 2206,
      "Ġque": 2207,
      "enu": 2208,
      "imum": 2209,
      "aw": 2210,
      "ĠData": 2211,
      "valu": 2212,
      "Ġ##": 2213,
      "curacy": 2214,
      "ik": 2215,
      "Ã©": 2216,
      "ream": 2217,
      "present": 2218,
      ")))Ċ": 2219,
      "ameter": 2220,
      "_arg": 2221,
      "itude": 2222,
      "ĠĠĠĠĠĠĠĠĠĠĠĠĊ": 2223,
      "struct": 2224,
      "_all": 2225,
      "Ġ[\"": 2226,
      "---": 2227,
      "idual": 2228,
      "_result": 2229,
      "Ġsent": 2230,
      "De": 2231,
      "ified": 2232,
      "duc": 2233,
      "isplay": 2234,
      "ling": 2235,
      "width": 2236,
      "cor": 2237,
      "Ġknow": 2238,
      "Ġselect": 2239,
      "IC": 2240,
      "OT": 2241,
      "Ġenumerate": 2242,
      "\\\\": 2243,
      "cket": 2244,
      "Ġday": 2245,
      "_per": 2246,
      "ĠĠĠĠĠĠĠĠĠĠ": 2247,
      "_number": 2248,
      "attr": 2249,
      "AS": 2250,
      "ush": 2251,
      "Ġatt": 2252,
      ".rand": 2253,
      "thing": 2254,
      "usr": 2255,
      "UR": 2256,
      "åº": 2257,
      "Ġhtt": 2258,
      "Ġlet": 2259,
      "chool": 2260,
      "(de": 2261,
      ".P": 2262,
      ")+": 2263,
      "iew": 2264,
      "Ġbecause": 2265,
      "90": 2266,
      "Ġdim": 2267,
      "cri": 2268,
      "Ġenco": 2269,
      "#!": 2270,
      "Ġlevel": 2271,
      "Ġcould": 2272,
      "ye": 2273,
      "ĠValue": 2274,
      "Ġparent": 2275,
      "Res": 2276,
      "Ġway": 2277,
      "Ġsklearn": 2278,
      "_from": 2279,
      "íķ": 2280,
      "cc": 2281,
      "Ġboth": 2282,
      "âĸ": 2283,
      "ever": 2284,
      "Ġnow": 2285,
      "]))Ċ": 2286,
      ".L": 2287,
      "Ġdraw": 2288,
      "mon": 2289,
      "uster": 2290,
      "Ġpoints": 2291,
      "(img": 2292,
      "Ġå": 2293,
      "ven": 2294,
      "bs": 2295,
      "ider": 2296,
      "Ġupdate": 2297,
      "Ġloss": 2298,
      "Ġ',": 2299,
      "ĠčĊ": 2300,
      "]+": 2301,
      "roll": 2302,
      ".next": 2303,
      "level": 2304,
      "Ġexist": 2305,
      "tes": 2306,
      "process": 2307,
      "Ġenv": 2308,
      "_line": 2309,
      "Ġbuild": 2310,
      ")]Ċ": 2311,
      "yle": 2312,
      "Ġnon": 2313,
      "try": 2314,
      "ailable": 2315,
      "Ġproduct": 2316,
      "Ġorig": 2317,
      "_matrix": 2318,
      "æĺ¯": 2319,
      "Ġtr": 2320,
      "ĠĠĠĠĠĠĠĠĠĠĠĠĠ": 2321,
      "bug": 2322,
      ".index": 2323,
      "/bin": 2324,
      "andas": 2325,
      "Ġblock": 2326,
      ".start": 2327,
      "Ġmatplotlib": 2328,
      "Ġbatch": 2329,
      "af": 2330,
      "random": 2331,
      "ane": 2332,
      "Ġfont": 2333,
      "asure": 2334,
      "__':Ċ": 2335,
      "ustom": 2336,
      "....": 2337,
      ".to": 2338,
      "ĠHe": 2339,
      "æĪ": 2340,
      "Ġmatch": 2341,
      "tle": 2342,
      "parse": 2343,
      "ier": 2344,
      "'):Ċ": 2345,
      "arge": 2346,
      "Ġpost": 2347,
      "Ġhum": 2348,
      ".B": 2349,
      "ĠPar": 2350,
      "Ġquest": 2351,
      "45": 2352,
      "_max": 2353,
      "Ġlink": 2354,
      "Ðº": 2355,
      "æł": 2356,
      "_D": 2357,
      "off": 2358,
      "ĠĠĠĠčĊ": 2359,
      "ually": 2360,
      "_idx": 2361,
      ")[": 2362,
      "Ġcoding": 2363,
      "Ġshape": 2364,
      "Ġlines": 2365,
      ")/": 2366,
      "idden": 2367,
      ".res": 2368,
      "Ġboard": 2369,
      "Ġallow": 2370,
      "while": 2371,
      "lish": 2372,
      "default": 2373,
      ")*": 2374,
      "Ġ'.": 2375,
      "king": 2376,
      "Ġident": 2377,
      "Ġfinal": 2378,
      "erial": 2379,
      "çĶ¨": 2380,
      "mplement": 2381,
      "tern": 2382,
      "ransform": 2383,
      "tect": 2384,
      "err": 2385,
      "Ġhere": 2386,
      "Ġcondition": 2387,
      "gen": 2388,
      "Ġmode": 2389,
      "assword": 2390,
      "()ĊĊĊ": 2391,
      "man": 2392,
      "cv": 2393,
      "keep": 2394,
      "Ġsol": 2395,
      "ared": 2396,
      ".pop": 2397,
      "rest": 2398,
      "Ġsearch": 2399,
      "_values": 2400,
      "ives": 2401,
      "</": 2402,
      "light": 2403,
      "================================": 2404,
      "ital": 2405,
      "Ġhis": 2406,
      "Ġwant": 2407,
      "ster": 2408,
      "Ġrepresent": 2409,
      "Ġlabels": 2410,
      "udi": 2411,
      "_we": 2412,
      "ases": 2413,
      "_B": 2414,
      "Ġnormal": 2415,
      "Ġsource": 2416,
      ".D": 2417,
      "mbed": 2418,
      "ours": 2419,
      "cores": 2420,
      "HE": 2421,
      "Ġstruct": 2422,
      "vious": 2423,
      "heet": 2424,
      ".id": 2425,
      "by": 2426,
      "Ġbefore": 2427,
      "Ġ>>>": 2428,
      "Ġrecord": 2429,
      "_array": 2430,
      "Ġinclude": 2431,
      "point": 2432,
      "\"]Ċ": 2433,
      "use": 2434,
      "Ġsave": 2435,
      "Ġcom": 2436,
      "Ġaw": 2437,
      "Ġsample": 2438,
      "uration": 2439,
      "ĠâĢĵ": 2440,
      "ategory": 2441,
      "åĽ": 2442,
      "Ġcost": 2443,
      "Ġconf": 2444,
      "UL": 2445,
      "Ġcontent": 2446,
      "AB": 2447,
      "_M": 2448,
      "500": 2449,
      "('\\": 2450,
      ".save": 2451,
      "ribute": 2452,
      "âĢĶ": 2453,
      "Ġlook": 2454,
      "attern": 2455,
      "unk": 2456,
      "ho": 2457,
      "Ġet": 2458,
      "Ġtraining": 2459,
      "words": 2460,
      "Ġrequests": 2461,
      "stand": 2462,
      "ference": 2463,
      "(in": 2464,
      "28": 2465,
      "_user": 2466,
      "Ġeven": 2467,
      "_k": 2468,
      "miss": 2469,
      "api": 2470,
      "lis": 2471,
      ".size": 2472,
      "_row": 2473,
      ".max": 2474,
      "sy": 2475,
      "(ch": 2476,
      "ination": 2477,
      "do": 2478,
      "]['": 2479,
      "(line": 2480,
      "čĊčĊčĊ": 2481,
      "ernel": 2482,
      "ards": 2483,
      "For": 2484,
      "ories": 2485,
      "ING": 2486,
      "Ġ-=": 2487,
      ",\"": 2488,
      ".update": 2489,
      "lear": 2490,
      "Ġtak": 2491,
      "https": 2492,
      ".argv": 2493,
      "Ñĩ": 2494,
      "Ġtech": 2495,
      "ED": 2496,
      "Ġpresent": 2497,
      "Ġtitle": 2498,
      "Ġwater": 2499,
      "We": 2500,
      "Ġhealth": 2501,
      ".A": 2502,
      "Ġ\"\\": 2503,
      "Ġprob": 2504,
      "Ġtree": 2505,
      "Ð²": 2506,
      "aut": 2507,
      "(text": 2508,
      "isk": 2509,
      "#!/": 2510,
      "(A": 2511,
      "ublic": 2512,
      "ids": 2513,
      "br": 2514,
      ")]": 2515,
      "Ġut": 2516,
      "term": 2517,
      "(k": 2518,
      "(object": 2519,
      "Ġgrid": 2520,
      ".G": 2521,
      "æį": 2522,
      "ysis": 2523,
      "Ġresearch": 2524,
      "HT": 2525,
      "inary": 2526,
      ").Ċ": 2527,
      "Ġdiv": 2528,
      "Ġweight": 2529,
      "ĠÐ¿": 2530,
      "hip": 2531,
      "Ġins": 2532,
      "imal": 2533,
      "ove": 2534,
      "21": 2535,
      "Ġstudents": 2536,
      "').": 2537,
      "of": 2538,
      "Ġ:Ċ": 2539,
      "è®": 2540,
      "å°": 2541,
      "cat": 2542,
      "Ġbody": 2543,
      "User": 2544,
      "Ġnn": 2545,
      "_F": 2546,
      "ilar": 2547,
      "_res": 2548,
      "(result": 2549,
      "Ġsorted": 2550,
      "strip": 2551,
      "ĠYou": 2552,
      "_map": 2553,
      ".items": 2554,
      "Ġprogram": 2555,
      "qrt": 2556,
      "Ġinst": 2557,
      "annel": 2558,
      "Value": 2559,
      "_min": 2560,
      "Class": 2561,
      "``": 2562,
      "Ġpage": 2563,
      "æī": 2564,
      ".di": 2565,
      "_code": 2566,
      "Ġbased": 2567,
      "sub": 2568,
      "stru": 2569,
      "ï¼ļ": 2570,
      "He": 2571,
      "ĠAs": 2572,
      "ĠHow": 2573,
      "lines": 2574,
      "lat": 2575,
      "(di": 2576,
      ".im": 2577,
      "Ġlearning": 2578,
      "({": 2579,
      "Ġdiff": 2580,
      "Ġhad": 2581,
      "ĠĠĊ": 2582,
      "Ġfollowing": 2583,
      "Ġreal": 2584,
      "Ġsupport": 2585,
      "oci": 2586,
      "IS": 2587,
      "Ġbeing": 2588,
      "_argument": 2589,
      "Ġpandas": 2590,
      "ĠÑģ": 2591,
      "Ġwrite": 2592,
      "ale": 2593,
      "ader": 2594,
      "ython": 2595,
      "_out": 2596,
      "elif": 2597,
      "idx": 2598,
      "_output": 2599,
      "ĠValueError": 2600,
      "])čĊ": 2601,
      "ince": 2602,
      "},": 2603,
      "Ġagain": 2604,
      "'))Ċ": 2605,
      ".model": 2606,
      "Ġquery": 2607,
      "Ġbot": 2608,
      "wn": 2609,
      "uild": 2610,
      "anguage": 2611,
      "Ġlif": 2612,
      "={": 2613,
      "Ġlogging": 2614,
      "db": 2615,
      "dif": 2616,
      "Ġmodels": 2617,
      "Ġport": 2618,
      "Ġcell": 2619,
      "(me": 2620,
      "Ġworld": 2621,
      "req": 2622,
      "AG": 2623,
      "(res": 2624,
      "[n": 2625,
      "Ġredu": 2626,
      "ification": 2627,
      "Ġcomb": 2628,
      ".čĊ": 2629,
      "_ve": 2630,
      "lue": 2631,
      "Ġpat": 2632,
      ".grid": 2633,
      "Le": 2634,
      "ĠTest": 2635,
      ".title": 2636,
      "cer": 2637,
      "Ġcent": 2638,
      "Text": 2639,
      "Ġ'\\": 2640,
      "[x": 2641,
      "Ġsmall": 2642,
      "cell": 2643,
      "Set": 2644,
      "AD": 2645,
      "27": 2646,
      "ref": 2647,
      "ources": 2648,
      "_names": 2649,
      "lip": 2650,
      "Ġ)ĊĊ": 2651,
      "Ġconst": 2652,
      "abs": 2653,
      "Ġlow": 2654,
      "reshold": 2655,
      "Ġlayer": 2656,
      "Key": 2657,
      "Val": 2658,
      "Ġinv": 2659,
      "ĊĠĠĠĠĠĠĠĠĊ": 2660,
      "na": 2661,
      "ĠZ": 2662,
      ".sleep": 2663,
      "_N": 2664,
      "Ġtoken": 2665,
      "Ġprodu": 2666,
      "Ġexpected": 2667,
      ".Data": 2668,
      ".keys": 2669,
      "Ġpossible": 2670,
      "bot": 2671,
      "location": 2672,
      ")-": 2673,
      "ground": 2674,
      "md": 2675,
      "ĠĠĠĠĠĠĠĠĠĠĠĠĠĠ": 2676,
      "_al": 2677,
      "Ġnumbers": 2678,
      "202": 2679,
      "Ġduring": 2680,
      "Ġgre": 2681,
      "Ġtake": 2682,
      "_table": 2683,
      "Path": 2684,
      "ells": 2685,
      "Ġdictionary": 2686,
      "Ġconvert": 2687,
      "eps": 2688,
      "arm": 2689,
      "tk": 2690,
      "ironment": 2691,
      "(co": 2692,
      "ones": 2693,
      "_dim": 2694,
      "Ġthose": 2695,
      "Ġimportant": 2696,
      "Ġutf": 2697,
      "Ġvery": 2698,
      "ands": 2699,
      "book": 2700,
      "Ġstop": 2701,
      "less": 2702,
      "_img": 2703,
      "Ġdistance": 2704,
      "Ġcommon": 2705,
      "_element": 2706,
      "Ġcopy": 2707,
      "http": 2708,
      "dividual": 2709,
      "________": 2710,
      "-s": 2711,
      "Ġwindow": 2712,
      "Ġplay": 2713,
      "UN": 2714,
      "éĩ": 2715,
      "_temp": 2716,
      "Ġ[]ĊĊ": 2717,
      "Ġfeatures": 2718,
      "ĠException": 2719,
      "Ġpower": 2720,
      "Ġunit": 2721,
      "_th": 2722,
      ".execute": 2723,
      "rap": 2724,
      "ĠIN": 2725,
      "ä¸º": 2726,
      "Ġappro": 2727,
      "Ġwithin": 2728,
      "Ġtask": 2729,
      "Ġless": 2730,
      "ason": 2731,
      "Ġsingle": 2732,
      "Ġmultip": 2733,
      ".left": 2734,
      "idget": 2735,
      ".replace": 2736,
      "_sum": 2737,
      "ends": 2738,
      "(filename": 2739,
      "ety": 2740,
      "****************": 2741,
      "Ġcontrol": 2742,
      "+=": 2743,
      "eta": 2744,
      "gor": 2745,
      "ribution": 2746,
      "Ġarr": 2747,
      "leg": 2748,
      "Ġnums": 2749,
      "Ġdesign": 2750,
      "Dict": 2751,
      "raph": 2752,
      "tack": 2753,
      "Un": 2754,
      "emp": 2755,
      "âĸĪ": 2756,
      "(url": 2757,
      "å¼": 2758,
      "ĠAl": 2759,
      ".value": 2760,
      "[k": 2761,
      "_class": 2762,
      "Ġyears": 2763,
      "26": 2764,
      "ĉĊ": 2765,
      "_start": 2766,
      ",b": 2767,
      "Ġstudy": 2768,
      "hes": 2769,
      "Ġparameters": 2770,
      "del": 2771,
      "Ġê": 2772,
      "Ġnetwork": 2773,
      "Ġdatabase": 2774,
      "over": 2775,
      "ene": 2776,
      "Ġ\"__": 2777,
      "ÐµÐ½": 2778,
      "reg": 2779,
      "ado": 2780,
      "ãĢĤ": 2781,
      "_un": 2782,
      "Ġ\")Ċ": 2783,
      "(new": 2784,
      "Ġ//": 2785,
      "!!": 2786,
      "tem": 2787,
      ".or": 2788,
      "ersion": 2789,
      "ift": 2790,
      "Of": 2791,
      "Ġpr": 2792,
      "Ġmem": 2793,
      "vas": 2794,
      "Ob": 2795,
      "ators": 2796,
      "Ġcharacter": 2797,
      "Ġmsg": 2798,
      "pi": 2799,
      ",čĊ": 2800,
      ">Ċ": 2801,
      "_rate": 2802,
      "quare": 2803,
      "Ġold": 2804,
      ".k": 2805,
      "ENT": 2806,
      ".un": 2807,
      "Ġserv": 2808,
      "åĬ": 2809,
      "'čĊ": 2810,
      "igure": 2811,
      "Ġdesc": 2812,
      "è¾": 2813,
      "state": 2814,
      "(test": 2815,
      "be": 2816,
      "(S": 2817,
      ".sum": 2818,
      "'),": 2819,
      "æĹ": 2820,
      "]*": 2821,
      "Ġarea": 2822,
      "ĠÐ²": 2823,
      "ism": 2824,
      "Enter": 2825,
      "odes": 2826,
      "pose": 2827,
      ".a": 2828,
      "(os": 2829,
      "Ġwithout": 2830,
      "Tree": 2831,
      "ias": 2832,
      "Count": 2833,
      "diction": 2834,
      "peed": 2835,
      "ched": 2836,
      "itch": 2837,
      "bar": 2838,
      ".right": 2839,
      "ged": 2840,
      "Ġdon": 2841,
      "ality": 2842,
      "åŃĹ": 2843,
      "IL": 2844,
      "cs": 2845,
      "Ġop": 2846,
      "Ġdtype": 2847,
      "_sp": 2848,
      "Ġtk": 2849,
      ".i": 2850,
      "atio": 2851,
      "Ġfeature": 2852,
      "Ġanswer": 2853,
      "Ġdisplay": 2854,
      "Ġamount": 2855,
      "Ġkeep": 2856,
      ".F": 2857,
      "Ġgood": 2858,
      "Ġchildren": 2859,
      "~~~~": 2860,
      "Index": 2861,
      "Ġcorrect": 2862,
      "Ġabs": 2863,
      "_sub": 2864,
      ".ro": 2865,
      "(N": 2866,
      "Ġoptim": 2867,
      "eras": 2868,
      "_pred": 2869,
      "Ð¼": 2870,
      "Ġrequired": 2871,
      "Ġobj": 2872,
      "Ġsolution": 2873,
      "ĠĠĠĠĠĠĠĠĠĠĠĠĠĠĠĠĠ": 2874,
      "_width": 2875,
      "LO": 2876,
      "_ac": 2877,
      ".fit": 2878,
      "ert": 2879,
      "Ġtmp": 2880,
      "actor": 2881,
      "(*": 2882,
      ".png": 2883,
      "Ġpredict": 2884,
      "Ġrest": 2885,
      "python": 2886,
      "title": 2887,
      "ĉelse": 2888,
      "Ġmethods": 2889,
      "Ġraw": 2890,
      "Ġaut": 2891,
      "www": 2892,
      "och": 2893,
      "show": 2894,
      "Ġ)": 2895,
      ".send": 2896,
      "35": 2897,
      "Ġtimes": 2898,
      "Ġcho": 2899,
      "Ġspace": 2900,
      "gorith": 2901,
      "istic": 2902,
      "_frame": 2903,
      "(key": 2904,
      "Ġsplit": 2905,
      "Ġear": 2906,
      "75": 2907,
      "(image": 2908,
      "fix": 2909,
      "top": 2910,
      "ĠGet": 2911,
      "space": 2912,
      "Ġremove": 2913,
      "Ġindividual": 2914,
      "urse": 2915,
      "Ġcomput": 2916,
      "Ġpassword": 2917,
      "ĠImage": 2918,
      "Ġsa": 2919,
      "Ġ\".": 2920,
      "go": 2921,
      "Ġbook": 2922,
      "Ġcommun": 2923,
      "Ġinstance": 2924,
      "())ĊĊ": 2925,
      "(value": 2926,
      "ickle": 2927,
      "[index": 2928,
      "ules": 2929,
      ".mat": 2930,
      "_j": 2931,
      "_en": 2932,
      "05": 2933,
      "An": 2934,
      "ĠTo": 2935,
      "Ġ--------": 2936,
      "uding": 2937,
      "'][": 2938,
      "Ġloop": 2939,
      ".pro": 2940,
      "Ġorgan": 2941,
      "ĠBe": 2942,
      "labels": 2943,
      "Ġperform": 2944,
      "Ġmonth": 2945,
      "âĢĻt": 2946,
      "ook": 2947,
      "cel": 2948,
      "(lambda": 2949,
      "Ġmask": 2950,
      "Ġparse": 2951,
      "ade": 2952,
      "Ġda": 2953,
      "300": 2954,
      "Ġnames": 2955,
      "Ġscreen": 2956,
      "_labels": 2957,
      "åĢ": 2958,
      "rack": 2959,
      "Ġclient": 2960,
      "Ġlocal": 2961,
      "_loss": 2962,
      "_add": 2963,
      "Ġmuch": 2964,
      "aper": 2965,
      "Ġ{\"": 2966,
      "Ġcalled": 2967,
      "mark": 2968,
      "Ġthree": 2969,
      "Ġbox": 2970,
      "Ġidx": 2971,
      "Ġstand": 2972,
      "CH": 2973,
      "Ġwrit": 2974,
      ".create": 2975,
      "radi": 2976,
      "\"čĊ": 2977,
      "Ġtuple": 2978,
      "length": 2979,
      "tings": 2980,
      ".\"\"\"Ċ": 2981,
      "_int": 2982,
      ".comp": 2983,
      "Ġcolumns": 2984,
      "You": 2985,
      "åľ": 2986,
      "Ġalpha": 2987,
      "UM": 2988,
      "ä¸Ń": 2989,
      "_z": 2990,
      ".info": 2991,
      "Ġimages": 2992,
      "anges": 2993,
      "Ġplace": 2994,
      "_log": 2995,
      "_features": 2996,
      "ral": 2997,
      "__\":Ċ": 2998,
      "ending": 2999,
      "_with": 3000,
      "Ġpo": 3001,
      "Ġam": 3002,
      "_new": 3003,
      "uture": 3004,
      "gine": 3005,
      "ilities": 3006,
      "cip": 3007,
      "70": 3008,
      "rel": 3009,
      "\"):Ċ": 3010,
      "++": 3011,
      "_ed": 3012,
      "Ġlead": 3013,
      "_error": 3014,
      "Ġpot": 3015,
      ".DataFrame": 3016,
      "odule": 3017,
      "aces": 3018,
      "asic": 3019,
      "Ġreturns": 3020,
      "_A": 3021,
      "Ġ[Ċ": 3022,
      "Ġavailable": 3023,
      "Ġgrow": 3024,
      "36": 3025,
      "Image": 3026,
      "mes": 3027,
      "Ġ[[": 3028,
      "Ġturn": 3029,
      ".comm": 3030,
      "Ġparams": 3031,
      "Ġgenerate": 3032,
      "Ġsuccess": 3033,
      "ready": 3034,
      "Ġfull": 3035,
      "Ġang": 3036,
      "olume": 3037,
      "(train": 3038,
      ".run": 3039,
      "total": 3040,
      "ware": 3041,
      "State": 3042,
      "los": 3043,
      "cont": 3044,
      "ĠLe": 3045,
      "Input": 3046,
      "/env": 3047,
      "Ġcy": 3048,
      "pec": 3049,
      "iment": 3050,
      "Ġproject": 3051,
      "Number": 3052,
      ".strip": 3053,
      "oly": 3054,
      "éĢ": 3055,
      "flow": 3056,
      "\"))Ċ": 3057,
      ".loc": 3058,
      "version": 3059,
      "orth": 3060,
      "Ġincrease": 3061,
      "Ġradi": 3062,
      "æį®": 3063,
      ",n": 3064,
      "rypt": 3065,
      "Ġcir": 3066,
      "vie": 3067,
      "Ġperiod": 3068,
      "Ġener": 3069,
      "Ġdest": 3070,
      "termin": 3071,
      ".date": 3072,
      "FF": 3073,
      "('/": 3074,
      "ounds": 3075,
      "Ġsw": 3076,
      ".j": 3077,
      ".json": 3078,
      ".rect": 3079,
      "(col": 3080,
      "PE": 3081,
      "ç¬": 3082,
      "Ġstatus": 3083,
      "âĸĪâĸĪ": 3084,
      "Ġmade": 3085,
      ".image": 3086,
      ".head": 3087,
      "Ġhuman": 3088,
      "alk": 3089,
      "icks": 3090,
      "hether": 3091,
      "gress": 3092,
      "Ġlimit": 3093,
      "Ġdig": 3094,
      "tex": 3095,
      "(M": 3096,
      "AME": 3097,
      "()čĊčĊ": 3098,
      "ĠComp": 3099,
      "Field": 3100,
      "Ġfil": 3101,
      "Ġrate": 3102,
      "ĠĊĊ": 3103,
      "å¯": 3104,
      "Ġlower": 3105,
      "down": 3106,
      "åħ¥": 3107,
      "ied": 3108,
      "requency": 3109,
      "())": 3110,
      "Ġoc": 3111,
      "Ġge": 3112,
      "(B": 3113,
      "Ġ((": 3114,
      "pert": 3115,
      "ived": 3116,
      "Ġaccess": 3117,
      "IZ": 3118,
      ",p": 3119,
      "Ġ}Ċ": 3120,
      "ptions": 3121,
      ":\",": 3122,
      "\").": 3123,
      ".ar": 3124,
      "Num": 3125,
      "(root": 3126,
      "Ġunderstand": 3127,
      "Ġitems": 3128,
      "(user": 3129,
      "Ġfood": 3130,
      ".randint": 3131,
      "TH": 3132,
      "OM": 3133,
      "Ġconnect": 3134,
      "Ġlambda": 3135,
      "sets": 3136,
      "ager": 3137,
      "upper": 3138,
      "=np": 3139,
      "Ġview": 3140,
      "Ð¾Ð²": 3141,
      "][\"": 3142,
      "ither": 3143,
      "_or": 3144,
      "Ġlight": 3145,
      "annels": 3146,
      "]):Ċ": 3147,
      "]:ĊĊĊ": 3148,
      "Ġgu": 3149,
      "Ġbool": 3150,
      "utput": 3151,
      ".values": 3152,
      "US": 3153,
      "Ġteach": 3154,
      "ros": 3155,
      "æľī": 3156,
      ".pyplot": 3157,
      "Ġreport": 3158,
      "iled": 3159,
      "coder": 3160,
      "wise": 3161,
      "():čĊ": 3162,
      "ĠSolution": 3163,
      "pg": 3164,
      "']['": 3165,
      "Ġfin": 3166,
      "andler": 3167,
      "Ġmeans": 3168,
      "Ġneg": 3169,
      "Ġrece": 3170,
      "ĠCol": 3171,
      "ĠThey": 3172,
      "=int": 3173,
      "ëĭ": 3174,
      "Ġinfo": 3175,
      "ration": 3176,
      "_ent": 3177,
      "Ġspecific": 3178,
      "No": 3179,
      "ributes": 3180,
      "Ġside": 3181,
      ".remove": 3182,
      ".en": 3183,
      "_words": 3184,
      "_sh": 3185,
      "[key": 3186,
      "sen": 3187,
      ".html": 3188,
      "_tree": 3189,
      "era": 3190,
      "Ġche": 3191,
      "_ro": 3192,
      "iles": 3193,
      "(args": 3194,
      "_position": 3195,
      "ä¸Ģä¸ª": 3196,
      "xy": 3197,
      "Ġimpro": 3198,
      "Ġmaterial": 3199,
      "Ġcells": 3200,
      "EL": 3201,
      "=t": 3202,
      "erature": 3203,
      "Ġ$": 3204,
      "alcul": 3205,
      "Ġlife": 3206,
      "Ġshe": 3207,
      "_valid": 3208,
      "Ġown": 3209,
      "Ġvector": 3210,
      "Ġapplic": 3211,
      "igma": 3212,
      "Ġlocation": 3213,
      "ely": 3214,
      "Ġtreat": 3215,
      "_ind": 3216,
      "_shape": 3217,
      "è¡Į": 3218,
      "msg": 3219,
      ".draw": 3220,
      "ä¹": 3221,
      "orn": 3222,
      "ordinates": 3223,
      "Ġcontext": 3224,
      "Ġproblem": 3225,
      "Ġlarge": 3226,
      "call": 3227,
      "--Ċ": 3228,
      "ivers": 3229,
      "_end": 3230,
      "Ġæ": 3231,
      "_color": 3232,
      "è¡¨": 3233,
      "Ġfit": 3234,
      "Ġtri": 3235,
      "ĠAdd": 3236,
      ".config": 3237,
      "ites": 3238,
      "âĢĵ": 3239,
      "(ex": 3240,
      "})Ċ": 3241,
      "ATE": 3242,
      "_token": 3243,
      "Ġpad": 3244,
      ".ma": 3245,
      "ystem": 3246,
      "ĠSo": 3247,
      "Game": 3248,
      "aving": 3249,
      "Ġtre": 3250,
      "bove": 3251,
      "Ġschool": 3252,
      "Ġage": 3253,
      "ender": 3254,
      "ĠTO": 3255,
      "etch": 3256,
      "Ġmeasure": 3257,
      "gin": 3258,
      "com": 3259,
      "Ġmed": 3260,
      ".list": 3261,
      "ocab": 3262,
      "_li": 3263,
      "zz": 3264,
      "trics": 3265,
      "Ġevalu": 3266,
      "ĠĠĠĠĠĠĠĠĠĠĠĠĠĠĠĠĠĠĠĠ": 3267,
      "Ġpair": 3268,
      "Ġinit": 3269,
      "ĠSh": 3270,
      "ird": 3271,
      ")),": 3272,
      "ools": 3273,
      "fit": 3274,
      "çĽ": 3275,
      "Ġpur": 3276,
      "Al": 3277,
      "Ġdone": 3278,
      "ĠSet": 3279,
      "ĠCreate": 3280,
      "ium": 3281,
      "RA": 3282,
      "Ġelements": 3283,
      "Ġexperi": 3284,
      "(max": 3285,
      "obs": 3286,
      "Ġzip": 3287,
      "_on": 3288,
      "ĠThese": 3289,
      "Ġenergy": 3290,
      "å¾": 3291,
      "Ġnodes": 3292,
      "adding": 3293,
      "oto": 3294,
      ".std": 3295,
      "Ġpract": 3296,
      "=['": 3297,
      "Ġoccur": 3298,
      "Cont": 3299,
      "Ġfilter": 3300,
      "#print": 3301,
      "author": 3302,
      "ĉs": 3303,
      "Ġstri": 3304,
      "Size": 3305,
      "oard": 3306,
      ".mean": 3307,
      "æŀ": 3308,
      "ÑģÑĤ": 3309,
      "itor": 3310,
      "usion": 3311,
      "PIO": 3312,
      "oo": 3313,
      "[int": 3314,
      "stamp": 3315,
      "Date": 3316,
      "struction": 3317,
      "_word": 3318,
      "var": 3319,
      "31": 3320,
      "lood": 3321,
      "Ġoften": 3322,
      "ech": 3323,
      "ung": 3324,
      "iece": 3325,
      "Ġpla": 3326,
      "Ġfill": 3327,
      "Ġaddress": 3328,
      "æĸĩ": 3329,
      "ideo": 3330,
      ".\")Ċ": 3331,
      "Ġcolle": 3332,
      "Ġenvironment": 3333,
      "andid": 3334,
      "rand": 3335,
      "Ġanother": 3336,
      "idence": 3337,
      "property": 3338,
      "Ġtypes": 3339,
      "Ġoriginal": 3340,
      "bose": 3341,
      "gment": 3342,
      "_L": 3343,
      "_range": 3344,
      "Ġindic": 3345,
      "Ġabove": 3346,
      "Ġserver": 3347,
      "ister": 3348,
      "vels": 3349,
      "]]Ċ": 3350,
      "Ġsession": 3351,
      ".insert": 3352,
      "Ġtrue": 3353,
      "mean": 3354,
      "Ġsql": 3355,
      "\\t": 3356,
      "Ġprevious": 3357,
      ".num": 3358,
      "ĠâĢĺ": 3359,
      "Ġaddition": 3360,
      "Ġincluding": 3361,
      "ĠRes": 3362,
      "Ġelect": 3363,
      "vest": 3364,
      "PO": 3365,
      "ags": 3366,
      "lem": 3367,
      "Ġaverage": 3368,
      "Ġshort": 3369,
      "Ġ``": 3370,
      "Ġfam": 3371,
      "_split": 3372,
      "medi": 3373,
      "dump": 3374,
      "Ġclean": 3375,
      "_and": 3376,
      "æķ°æį®": 3377,
      "Ġaround": 3378,
      "_point": 3379,
      "Ġrisk": 3380,
      "az": 3381,
      "Ġwin": 3382,
      "\"],": 3383,
      ".org": 3384,
      "':'": 3385,
      "02": 3386,
      "EM": 3387,
      "Ġround": 3388,
      "oid": 3389,
      "Ġlearn": 3390,
      "(pro": 3391,
      "(j": 3392,
      "Ġalready": 3393,
      "Ġpack": 3394,
      "Ġthread": 3395,
      "jor": 3396,
      "weet": 3397,
      "(z": 3398,
      "\"+": 3399,
      ".lower": 3400,
      "å½": 3401,
      "ways": 3402,
      "ĠĠĠĠĠĠĠĠčĊ": 3403,
      "åĨ": 3404,
      "Me": 3405,
      "Ġcompon": 3406,
      "Ġartic": 3407,
      "ĠEn": 3408,
      "(sys": 3409,
      "ients": 3410,
      "utils": 3411,
      "ildren": 3412,
      "Ġiss": 3413,
      "Ġfunctions": 3414,
      "(D": 3415,
      "Ġyield": 3416,
      "Ġant": 3417,
      ":-": 3418,
      "Ġeas": 3419,
      "[p": 3420,
      "Ġsequence": 3421,
      "ĠDef": 3422,
      ".sqrt": 3423,
      "outh": 3424,
      "lev": 3425,
      "artic": 3426,
      "je": 3427,
      "ov": 3428,
      "(P": 3429,
      "replace": 3430,
      "34": 3431,
      "fer": 3432,
      "*(": 3433,
      "just": 3434,
      "Ġsleep": 3435,
      "199": 3436,
      "Ġali": 3437,
      "ĠThere": 3438,
      "logical": 3439,
      "local": 3440,
      "queue": 3441,
      "ypes": 3442,
      "ĠCom": 3443,
      "math": 3444,
      "Ġtag": 3445,
      "Lo": 3446,
      "Ġscale": 3447,
      "Ġher": 3448,
      "Ġhome": 3449,
      "-------": 3450,
      "dep": 3451,
      "Line": 3452,
      "Ġaccount": 3453,
      "ocket": 3454,
      "Ġmight": 3455,
      "amma": 3456,
      "Ġprovide": 3457,
      "(word": 3458,
      "åıĸ": 3459,
      "meric": 3460,
      "Ġstack": 3461,
      ".parse": 3462,
      "Up": 3463,
      "ront": 3464,
      "[self": 3465,
      "Ġoptions": 3466,
      "Ġimplement": 3467,
      "ĠÐ½": 3468,
      "_R": 3469,
      "ensity": 3470,
      "Ġlogger": 3471,
      "alpha": 3472,
      "37": 3473,
      "Ġvar": 3474,
      "check": 3475,
      "Ġedge": 3476,
      "29": 3477,
      "Ġmedi": 3478,
      "Ġmon": 3479,
      "åĩº": 3480,
      "ivity": 3481,
      "Ġide": 3482,
      "uc": 3483,
      "Ġdise": 3484,
      "_args": 3485,
      "Ġrows": 3486,
      "Ġrot": 3487,
      "Ġcounter": 3488,
      "mpty": 3489,
      "Ã¡": 3490,
      ".float": 3491,
      "Ġassoci": 3492,
      "55": 3493,
      "_object": 3494,
      "Ġhy": 3495,
      "=s": 3496,
      "Ġempty": 3497,
      "apt": 3498,
      "Ġobserv": 3499,
      "imate": 3500,
      "Ġfunc": 3501,
      "alance": 3502,
      "kes": 3503,
      "(node": 3504,
      "static": 3505,
      "String": 3506,
      "Ġmet": 3507,
      "tact": 3508,
      "]=": 3509,
      "Mat": 3510,
      "],[": 3511,
      "ä¸į": 3512,
      "gorithm": 3513,
      "Ġdirectory": 3514,
      "raction": 3515,
      "ills": 3516,
      "(time": 3517,
      "ressed": 3518,
      ".connect": 3519,
      "ah": 3520,
      "åĮ": 3521,
      ".R": 3522,
      "(C": 3523,
      "first": 3524,
      "Ġvariables": 3525,
      "400": 3526,
      "havi": 3527,
      "Ð´": 3528,
      "ional": 3529,
      "åį": 3530,
      "eighb": 3531,
      "mt": 3532,
      "(map": 3533,
      "eded": 3534,
      "Ġ...": 3535,
      "ĠĠĠĠĠĠĠĠĠĠĠĠĠĠĠĠĠĠ": 3536,
      ".min": 3537,
      "))ĊĊĊ": 3538,
      "Ġmodule": 3539,
      "If": 3540,
      "('.": 3541,
      "Ġ\"\"\"čĊ": 3542,
      "tric": 3543,
      "Ġversion": 3544,
      "ixel": 3545,
      "Or": 3546,
      "Ġprice": 3547,
      "Ġlanguage": 3548,
      "_at": 3549,
      "Ġconnection": 3550,
      "Ġdevelopment": 3551,
      "Ġchoice": 3552,
      "tag": 3553,
      "uess": 3554,
      "alf": 3555,
      "Ġphys": 3556,
      "Log": 3557,
      "Ġclose": 3558,
      "Ġ'/": 3559,
      "ĉp": 3560,
      ".group": 3561,
      "Ġ{}\".": 3562,
      "ĠĠĠĠĠĠĠĠĠĠĠĠĠĠĠĠĠĠĠĠĠĠĠĠĠĠĠĠĠĠĠĠĠĠĠ": 3563,
      "()[": 3564,
      "Ġdeta": 3565,
      ",-": 3566,
      "icy": 3567,
      "Ġrespon": 3568,
      "number": 3569,
      "iness": 3570,
      "ĠOn": 3571,
      "stems": 3572,
      "Ġcursor": 3573,
      "lig": 3574,
      "Ġbecome": 3575,
      "-b": 3576,
      "Model": 3577,
      "_comp": 3578,
      "Ġsimilar": 3579,
      "Ġtool": 3580,
      "(model": 3581,
      "ount": 3582,
      "Ġquestion": 3583,
      "grid": 3584,
      "Ġheader": 3585,
      "_points": 3586,
      "IP": 3587,
      "Table": 3588,
      "Ġrep": 3589,
      "Ġbutton": 3590,
      "most": 3591,
      "IR": 3592,
      "epoch": 3593,
      "Ġcontains": 3594,
      "Ġdirection": 3595,
      ".predict": 3596,
      "Ġhttps": 3597,
      "header": 3598,
      "Ġdevice": 3599,
      "Ġknown": 3600,
      ".copy": 3601,
      "Ġ#Ċ": 3602,
      "Ġmot": 3603,
      "(item": 3604,
      "lick": 3605,
      "lask": 3606,
      "=p": 3607,
      "Ġweb": 3608,
      "_no": 3609,
      "Ġwhether": 3610,
      "Ġsens": 3611,
      "ĠĠĠĠĠĠĠĠĠĠĠĠĠĠĠĠĠĠĠĠĠ": 3612,
      "ĠCheck": 3613,
      "Return": 3614,
      "################################################################": 3615,
      "ĠParameters": 3616,
      "lap": 3617,
      ":%": 3618,
      "tn": 3619,
      "Case": 3620,
      ".current": 3621,
      "-%": 3622,
      "Ġpas": 3623,
      "Ġanalysis": 3624,
      "Ġht": 3625,
      "active": 3626,
      "Ġappe": 3627,
      "_function": 3628,
      "erge": 3629,
      "until": 3630,
      "Ġclo": 3631,
      "Ġtensor": 3632,
      "æ³": 3633,
      ".count": 3634,
      "Ġenter": 3635,
      "net": 3636,
      "Ġ[]": 3637,
      ".dump": 3638,
      "ãģ®": 3639,
      "EX": 3640,
      "Ġ[]čĊ": 3641,
      "ĉelif": 3642,
      "Ġcare": 3643,
      "ĠMe": 3644,
      "_height": 3645,
      "ram": 3646,
      "As": 3647,
      "-f": 3648,
      "_dist": 3649,
      "dictions": 3650,
      "Ġsort": 3651,
      "Ġcalculate": 3652,
      "_json": 3653,
      "Ġcreated": 3654,
      "Ġinteg": 3655,
      "ML": 3656,
      "Ð°ÑĤ": 3657,
      "Ġemail": 3658,
      "Ġunique": 3659,
      "ered": 3660,
      "Item": 3661,
      "Ġequ": 3662,
      "_layer": 3663,
      "(arr": 3664,
      "ond": 3665,
      "Ġpred": 3666,
      "(temp": 3667,
      "Ġsend": 3668,
      "Ġclear": 3669,
      "_obj": 3670,
      "Ġsug": 3671,
      "44": 3672,
      "]/": 3673,
      ":\\": 3674,
      "Ġreco": 3675,
      "Ġstructure": 3676,
      "hel": 3677,
      "ui": 3678,
      "åĢ¼": 3679,
      ".sort": 3680,
      "ada": 3681,
      "(T": 3682,
      "host": 3683,
      "Ġsignific": 3684,
      "IZE": 3685,
      "poch": 3686,
      "alle": 3687,
      "nn": 3688,
      "oot": 3689,
      "'+": 3690,
      "_price": 3691,
      "Ġinterest": 3692,
      "Ġparticular": 3693,
      "Ġbelow": 3694,
      "Ġdir": 3695,
      ".ext": 3696,
      "ĠĠĠĠĠĠĠĠĠĠĠĠĠĠĠĠĠĠĠĠĠĠ": 3697,
      "pts": 3698,
      "loss": 3699,
      "ILE": 3700,
      "cording": 3701,
      "lied": 3702,
      "AP": 3703,
      "ĠNot": 3704,
      "Ġobjects": 3705,
      "æĿ": 3706,
      "åĪĨ": 3707,
      "ĠID": 3708,
      "Ġequal": 3709,
      "Ġchanges": 3710,
      "area": 3711,
      ".exp": 3712,
      "Ġkernel": 3713,
      "perties": 3714,
      "uted": 3715,
      "'],Ċ": 3716,
      "_iter": 3717,
      "ĠÐº": 3718,
      "now": 3719,
      "=f": 3720,
      "[t": 3721,
      "What": 3722,
      "Ġsal": 3723,
      "Ġpress": 3724,
      "ĠArgs": 3725,
      "mission": 3726,
      "\\Ċ": 3727,
      "Ġentry": 3728,
      "}ĊĊ": 3729,
      "rie": 3730,
      "Not": 3731,
      "FT": 3732,
      "Ġstat": 3733,
      "mand": 3734,
      "ĠPre": 3735,
      "Ġweights": 3736,
      "Ġdid": 3737,
      "Ġconn": 3738,
      "_item": 3739,
      "layout": 3740,
      "Ġcustom": 3741,
      "'),Ċ": 3742,
      "Ġí": 3743,
      "rime": 3744,
      ".pi": 3745,
      "_params": 3746,
      "Ġkeys": 3747,
      "Exception": 3748,
      "_group": 3749,
      "doc": 3750,
      "æİ": 3751,
      "Ġeither": 3752,
      "gb": 3753,
      "ĠOr": 3754,
      "Ġreview": 3755,
      "respon": 3756,
      "copy": 3757,
      "Ġbetter": 3758,
      "150": 3759,
      "Color": 3760,
      "Ġ(Ċ": 3761,
      "run": 3762,
      "All": 3763,
      "acc": 3764,
      "]-": 3765,
      "_cur": 3766,
      "ĠWhen": 3767,
      "_title": 3768,
      ".from": 3769,
      "Ġflag": 3770,
      "']ĊĊ": 3771,
      "Ġ'-": 3772,
      "Ġcurr": 3773,
      "_prob": 3774,
      "pu": 3775,
      "ym": 3776,
      "(output": 3777,
      "38": 3778,
      "ĠAd": 3779,
      "IGHT": 3780,
      "_W": 3781,
      "ored": 3782,
      "Ġstill": 3783,
      "Ġhist": 3784,
      "ended": 3785,
      "Ġdescription": 3786,
      "initial": 3787,
      "ĠHowever": 3788,
      "Ġfore": 3789,
      ".key": 3790,
      "ÐµÑĤ": 3791,
      "Ġexit": 3792,
      "Ġmodif": 3793,
      "Ġopp": 3794,
      "By": 3795,
      "rows": 3796,
      "rank": 3797,
      "ication": 3798,
      "cision": 3799,
      "Ġprote": 3800,
      "_field": 3801,
      "omb": 3802,
      "Ġacc": 3803,
      "agement": 3804,
      "Parser": 3805,
      ".E": 3806,
      "rome": 3807,
      "Ġput": 3808,
      "cope": 3809,
      "(mat": 3810,
      "istics": 3811,
      "Ġinteger": 3812,
      "EY": 3813,
      "astype": 3814,
      "info": 3815,
      "erm": 3816,
      ".we": 3817,
      "_ma": 3818,
      "atural": 3819,
      "(G": 3820,
      "SS": 3821,
      "65": 3822,
      "ÐµÑĢ": 3823,
      "ario": 3824,
      "uf": 3825,
      "Ġsimple": 3826,
      "Ġthink": 3827,
      ".âĢĿ": 3828,
      "ĠSp": 3829,
      "Ġadv": 3830,
      "ĠAmeric": 3831,
      ":`": 3832,
      "wd": 3833,
      "è¾ĵ": 3834,
      "Ġcenter": 3835,
      "Ġsocket": 3836,
      "rences": 3837,
      "rectory": 3838,
      "'\\": 3839,
      "Ġtoo": 3840,
      "ogle": 3841,
      ".output": 3842,
      "ND": 3843,
      "Ġ\"+": 3844,
      "_message": 3845,
      "_nodes": 3846,
      "../": 3847,
      "ube": 3848,
      ".type": 3849,
      "olve": 3850,
      "åľ¨": 3851,
      "Ġeduc": 3852,
      "Ġface": 3853,
      "ĉĉĉĉĉ": 3854,
      "Ġsepar": 3855,
      "Ġparameter": 3856,
      "Ġbus": 3857,
      "oper": 3858,
      "Ġben": 3859,
      "icro": 3860,
      "enerate": 3861,
      "izes": 3862,
      "Cre": 3863,
      "Ġremain": 3864,
      "her": 3865,
      "Ġprev": 3866,
      "Ð°Ð½": 3867,
      ":',": 3868,
      "Ġ\"\"Ċ": 3869,
      "Ġinsert": 3870,
      "Ġart": 3871,
      "ä»¶": 3872,
      "ìĿ´": 3873,
      "Ġpotential": 3874,
      "Ġleg": 3875,
      "Ð¾Ð»": 3876,
      "Ġencoding": 3877,
      "Ã³": 3878,
      "lected": 3879,
      "_inter": 3880,
      "Array": 3881,
      "Ġdescrib": 3882,
      "Ġstore": 3883,
      "hi": 3884,
      "cret": 3885,
      "-p": 3886,
      "OP": 3887,
      "Ġdr": 3888,
      "Ġcontaining": 3889,
      "Ġcomplete": 3890,
      "(tf": 3891,
      ".V": 3892,
      "aa": 3893,
      "mber": 3894,
      "Ġextract": 3895,
      "_reg": 3896,
      "Ð¿": 3897,
      "CA": 3898,
      "Comp": 3899,
      "essage": 3900,
      "123": 3901,
      "Ġusers": 3902,
      "Ġhistory": 3903,
      "78": 3904,
      "\\x": 3905,
      "å®ļ": 3906,
      "48": 3907,
      "Str": 3908,
      "(F": 3909,
      "Ã§": 3910,
      "urtle": 3911,
      "emy": 3912,
      "land": 3913,
      "Ġsure": 3914,
      "Ġsubject": 3915,
      "Ġleast": 3916,
      "eries": 3917,
      "âĢĶâĢĶ": 3918,
      "Ġparam": 3919,
      "\"])Ċ": 3920,
      "Ġcollections": 3921,
      "Ġhost": 3922,
      "node": 3923,
      "_ids": 3924,
      "pecial": 3925,
      "Des": 3926,
      "urther": 3927,
      ".exit": 3928,
      "[str": 3929,
      ".arange": 3930,
      "apping": 3931,
      "_files": 3932,
      ".nd": 3933,
      "!Ċ": 3934,
      ",s": 3935,
      "Sh": 3936,
      "ĠLo": 3937,
      "Sp": 3938,
      "(un": 3939,
      "wards": 3940,
      "Ġstudent": 3941,
      "###": 3942,
      "ĠNew": 3943,
      "ector": 3944,
      ".Q": 3945,
      ".open": 3946,
      "ê°": 3947,
      "_mean": 3948,
      "ftware": 3949,
      "]))": 3950,
      "\"{": 3951,
      "Ġqueue": 3952,
      "Ġcourse": 3953,
      ".trans": 3954,
      "Ġassign": 3955,
      "avg": 3956,
      "(par": 3957,
      "ao": 3958,
      ".sc": 3959,
      "ĠPython": 3960,
      ".user": 3961,
      "')ĊĊĊ": 3962,
      "Ġpercent": 3963,
      "ç±": 3964,
      "----------------------------------------------------------------": 3965,
      "95": 3966,
      "Ġbegin": 3967,
      "Ġspeed": 3968,
      "aries": 3969,
      "rs": 3970,
      "Ġconditions": 3971,
      "Ã£": 3972,
      "åĪĹ": 3973,
      "Ġprovided": 3974,
      "ina": 3975,
      "_left": 3976,
      "Ġcls": 3977,
      "Ġair": 3978,
      "':čĊ": 3979,
      "\"),": 3980,
      "Ġpublic": 3981,
      "Ġsupp": 3982,
      "Ġur": 3983,
      "_comm": 3984,
      "Ġsocial": 3985,
      "ring": 3986,
      "Ġ\"Ċ": 3987,
      "Ġtrack": 3988,
      "sing": 3989,
      "adata": 3990,
      "gree": 3991,
      "Ġhttp": 3992,
      "Ġstd": 3993,
      "conom": 3994,
      "/s": 3995,
      ".dot": 3996,
      "Ġsymbol": 3997,
      "uro": 3998,
      "Ġletter": 3999,
      "TP": 4000,
      "Ġcer": 4001,
      "Ġcomplex": 4002,
      "_gra": 4003,
      ",c": 4004,
      "Pre": 4005,
      ".nn": 4006,
      "ä»¥": 4007,
      "Ġsince": 4008,
      "Ġrender": 4009,
      "hy": 4010,
      "NA": 4011,
      "Ġbehavi": 4012,
      "Ġcard": 4013,
      "SV": 4014,
      "Ġanaly": 4015,
      "ĠUser": 4016,
      "OD": 4017,
      "nown": 4018,
      "(['": 4019,
      "Ġpay": 4020,
      "istance": 4021,
      "},Ċ": 4022,
      "Ġmultiple": 4023,
      "staticmethod": 4024,
      "Ð¸ÑĤ": 4025,
      "////": 4026,
      "parser": 4027,
      "ropout": 4028,
      "Ġdays": 4029,
      "table": 4030,
      "Ġens": 4031,
      "256": 4032,
      "Com": 4033,
      "åĪ°": 4034,
      "Window": 4035,
      "Ġdocument": 4036,
      "66": 4037,
      "[s": 4038,
      "Ġpaper": 4039,
      "Ġnecess": 4040,
      "Ġpositive": 4041,
      "ively": 4042,
      "Ã£o": 4043,
      "lit": 4044,
      "oney": 4045,
      "ĠÐ¸": 4046,
      "ìĹ": 4047,
      "sess": 4048,
      "Ġauthor": 4049,
      "Ġ''Ċ": 4050,
      "Hel": 4051,
      "Ġbro": 4052,
      "write": 4053,
      "Ġcases": 4054,
      "dered": 4055,
      "icense": 4056,
      "Ġsche": 4057,
      "Ġfeed": 4058,
      "stract": 4059,
      ".reshape": 4060,
      "Ġneighb": 4061,
      ".test": 4062,
      "æĪĲ": 4063,
      "Ġforward": 4064,
      "Ġmid": 4065,
      "ident": 4066,
      "(start": 4067,
      ".app": 4068,
      ");": 4069,
      "Ġ*Ċ": 4070,
      "xx": 4071,
      "Ġhapp": 4072,
      "Ġactivation": 4073,
      "On": 4074,
      "Ġ..": 4075,
      "inition": 4076,
      "Ġscal": 4077,
      "Ġplan": 4078,
      "ROM": 4079,
      "aded": 4080,
      "imer": 4081,
      "(_": 4082,
      ".train": 4083,
      "Ġsignificant": 4084,
      "andom": 4085,
      "side": 4086,
      "Ġblood": 4087,
      "stack": 4088,
      "ilt": 4089,
      "ĉĉĊ": 4090,
      "config": 4091,
      "ensions": 4092,
      "group": 4093,
      "Ġdue": 4094,
      "Ġroom": 4095,
      "ĠAnd": 4096,
      "ior": 4097,
      "ultip": 4098,
      "ĉf": 4099,
      "except": 4100,
      "ĠInd": 4101,
      "Ġinterface": 4102,
      "stead": 4103,
      "Ġactivity": 4104,
      "_block": 4105,
      "::": 4106,
      "[c": 4107,
      ",j": 4108,
      "It": 4109,
      "Ġworks": 4110,
      "Ġ-*-Ċ": 4111,
      "=-": 4112,
      "ĠWhat": 4113,
      "dient": 4114,
      "ĠKey": 4115,
      "ology": 4116,
      "iddle": 4117,
      "+\"": 4118,
      "_samples": 4119,
      "Ġaccuracy": 4120,
      "uest": 4121,
      "TE": 4122,
      "Ġbar": 4123,
      "Ġcorrespon": 4124,
      "ç±»": 4125,
      "bit": 4126,
      "Ġarguments": 4127,
      "Ġred": 4128,
      "udent": 4129,
      "Ġhash": 4130,
      "lex": 4131,
      "ula": 4132,
      "Ġcut": 4133,
      ".pack": 4134,
      "pol": 4135,
      "rowser": 4136,
      "ledge": 4137,
      "éĹ": 4138,
      ".columns": 4139,
      "fficient": 4140,
      ".figure": 4141,
      "Ġfew": 4142,
      "gg": 4143,
      "ctors": 4144,
      "ĠType": 4145,
      "42": 4146,
      "=='": 4147,
      "enerator": 4148,
      "UP": 4149,
      "_func": 4150,
      "Label": 4151,
      "rate": 4152,
      "Ġquant": 4153,
      "IV": 4154,
      "ymbol": 4155,
      "ä¼": 4156,
      "ä¿": 4157,
      "ouble": 4158,
      "Ġfactor": 4159,
      "Ġcross": 4160,
      "ç½": 4161,
      "ĠÐ´": 4162,
      "[(": 4163,
      "Ġsurface": 4164,
      "Ġsever": 4165,
      "ĠEng": 4166,
      "actions": 4167,
      "link": 4168,
      "allen": 4169,
      "Ġspecified": 4170,
      ".imshow": 4171,
      "Max": 4172,
      "delta": 4173,
      "IST": 4174,
      "issing": 4175,
      "Ġpattern": 4176,
      "Reg": 4177,
      "NN": 4178,
      "Ġneeds": 4179,
      "Ġconsider": 4180,
      "tered": 4181,
      "å¯¹": 4182,
      "iform": 4183,
      "Ġlevels": 4184,
      "iful": 4185,
      "Ġdiag": 4186,
      "çĤ": 4187,
      "lished": 4188,
      "Ġteam": 4189,
      "Ġterm": 4190,
      "thers": 4191,
      "Ġdelta": 4192,
      "Ġtechno": 4193,
      ".o": 4194,
      "Ġfree": 4195,
      "acters": 4196,
      "_as": 4197,
      "Ġhel": 4198,
      "_graph": 4199,
      "cing": 4200,
      "Ġproces": 4201,
      "ixed": 4202,
      "ĠÑ": 4203,
      "okens": 4204,
      "æĹ¶": 4205,
      "'''": 4206,
      "Ġactual": 4207,
      "128": 4208,
      "dt": 4209,
      "æĸ¹": 4210,
      "aps": 4211,
      "column": 4212,
      "Ġcause": 4213,
      "Ġcult": 4214,
      ":]Ċ": 4215,
      "ĠDo": 4216,
      "lour": 4217,
      ",x": 4218,
      "Ġflow": 4219,
      "Ġem": 4220,
      "Ġweek": 4221,
      "Ġfast": 4222,
      ".str": 4223,
      "Ġsignal": 4224,
      "txt": 4225,
      "rict": 4226,
      "Ġsamples": 4227,
      "Ġhtml": 4228,
      "ury": 4229,
      "Ġbound": 4230,
      "ĉb": 4231,
      "Ġ')Ċ": 4232,
      ".N": 4233,
      "Ġsoup": 4234,
      "001": 4235,
      "room": 4236,
      "Ġpickle": 4237,
      "_one": 4238,
      "forms": 4239,
      "Ġdisease": 4240,
      "abet": 4241,
      "Ġsteps": 4242,
      "autiful": 4243,
      "Ġable": 4244,
      "iversity": 4245,
      "auss": 4246,
      "orical": 4247,
      "Ġtechn": 4248,
      "ĠĠĠĠĠĠĠĠĠĠĠĠĠĠĠĠĠĠĠĠĠĠĠĠĠ": 4249,
      "legend": 4250,
      "_filename": 4251,
      ".sp": 4252,
      "uffle": 4253,
      "Ġhigher": 4254,
      "è¦": 4255,
      "Ġuntil": 4256,
      "Ġ]Ċ": 4257,
      ".display": 4258,
      "year": 4259,
      "180": 4260,
      "çİ": 4261,
      "Ġrequire": 4262,
      "Ġfa": 4263,
      "loye": 4264,
      "ores": 4265,
      "(pre": 4266,
      "XX": 4267,
      "vis": 4268,
      ".readline": 4269,
      "uffer": 4270,
      "åı¯": 4271,
      "=[]Ċ": 4272,
      "Ġlista": 4273,
      "Button": 4274,
      "å¹": 4275,
      "\"].": 4276,
      "stant": 4277,
      "Ġremo": 4278,
      "_batch": 4279,
      "_he": 4280,
      "DF": 4281,
      "amera": 4282,
      "_off": 4283,
      "ole": 4284,
      "Ġfields": 4285,
      "ropy": 4286,
      "ĠNo": 4287,
      "Ġgroups": 4288,
      "omen": 4289,
      ".subplot": 4290,
      "coding": 4291,
      "Ġalways": 4292,
      "vide": 4293,
      "Ġstudi": 4294,
      "message": 4295,
      ":]": 4296,
      "_config": 4297,
      "Ġsentence": 4298,
      "Ġpara": 4299,
      "une": 4300,
      "OS": 4301,
      "ired": 4302,
      "åī": 4303,
      "Ġfun": 4304,
      "alls": 4305,
      "Ġarticle": 4306,
      "Ġinputs": 4307,
      "Ġfour": 4308,
      "è½": 4309,
      "vals": 4310,
      "Ġepoch": 4311,
      "_check": 4312,
      "uccess": 4313,
      "Ġrand": 4314,
      "_mask": 4315,
      "}\\": 4316,
      "loor": 4317,
      "Len": 4318,
      "ux": 4319,
      "LECT": 4320,
      "andle": 4321,
      "asis": 4322,
      "anvas": 4323,
      "Ġ----------Ċ": 4324,
      "Ġmus": 4325,
      "gether": 4326,
      "formed": 4327,
      "Ġpi": 4328,
      "Ġsystems": 4329,
      "Ġtreatment": 4330,
      "race": 4331,
      "Ġtransform": 4332,
      "ador": 4333,
      "Ġbinary": 4334,
      "Ġneeded": 4335,
      "otes": 4336,
      "_cont": 4337,
      "Ġtemperature": 4338,
      "ptional": 4339,
      ".iloc": 4340,
      "Start": 4341,
      "Ġ\"/": 4342,
      "_format": 4343,
      "ĠName": 4344,
      "Ġlab": 4345,
      "ks": 4346,
      "Ġexec": 4347,
      "ison": 4348,
      "Ġprof": 4349,
      "Pos": 4350,
      "Ġcluster": 4351,
      "Ġstrateg": 4352,
      "Qu": 4353,
      "Ġargparse": 4354,
      "rb": 4355,
      "Ġspecial": 4356,
      "latt": 4357,
      "Ġbl": 4358,
      "termine": 4359,
      ".ylabel": 4360,
      "cript": 4361,
      "(u": 4362,
      "(target": 4363,
      "ulate": 4364,
      "Ġfoc": 4365,
      "ering": 4366,
      "util": 4367,
      "Ġder": 4368,
      ").__": 4369,
      "çī": 4370,
      "vid": 4371,
      "Ġoffset": 4372,
      "mic": 4373,
      "anager": 4374,
      "Ġsel": 4375,
      "03": 4376,
      "ably": 4377,
      "HER": 4378,
      ",f": 4379,
      "batch": 4380,
      "TO": 4381,
      "locity": 4382,
      "Ġangle": 4383,
      "Ġcannot": 4384,
      "Ġbit": 4385,
      "Ġargument": 4386,
      "Ġreverse": 4387,
      "}\".": 4388,
      "oy": 4389,
      "Ġselected": 4390,
      "oriz": 4391,
      "Ġkwargs": 4392,
      "\"\"\"čĊ": 4393,
      "driver": 4394,
      "cd": 4395,
      "_arr": 4396,
      ".compile": 4397,
      "'{": 4398,
      "ping": 4399,
      ".xlabel": 4400,
      "(out": 4401,
      "Ġclasses": 4402,
      "Min": 4403,
      "Ð¾ÑĢ": 4404,
      "']:Ċ": 4405,
      ".layers": 4406,
      "weight": 4407,
      "Ġassociated": 4408,
      "pus": 4409,
      "('-": 4410,
      "Ġsomething": 4411,
      "Ġfla": 4412,
      "ĠBut": 4413,
      ".place": 4414,
      "æŀľ": 4415,
      "ëĬ": 4416,
      "Ġinvest": 4417,
      "amount": 4418,
      "Ġaffect": 4419,
      "raint": 4420,
      "orage": 4421,
      "Ġ'%": 4422,
      "Ġrect": 4423,
      "Ġlst": 4424,
      "target": 4425,
      "itu": 4426,
      "Ġthings": 4427,
      "âĶ": 4428,
      "Ġcompute": 4429,
      "çĤ¹": 4430,
      "Ġscri": 4431,
      "ĠPh": 4432,
      "Ġspecies": 4433,
      "GB": 4434,
      "Object": 4435,
      "Ġland": 4436,
      "ĠLabel": 4437,
      "asing": 4438,
      ".datetime": 4439,
      "Ġdt": 4440,
      "_keys": 4441,
      "ç´": 4442,
      "Ġvideo": 4443,
      "oh": 4444,
      "Result": 4445,
      "Ġbig": 4446,
      "_rect": 4447,
      "Ġrole": 4448,
      "102": 4449,
      "change": 4450,
      "ssages": 4451,
      "Ġauth": 4452,
      "_step": 4453,
      "Ġcla": 4454,
      ".state": 4455,
      "æ³ķ": 4456,
      "_X": 4457,
      ":.": 4458,
      "crypt": 4459,
      "\")ĊĊĊ": 4460,
      ".debug": 4461,
      "Ġscipy": 4462,
      "ç®": 4463,
      "mbers": 4464,
      "ĠAc": 4465,
      "Info": 4466,
      "CK": 4467,
      "æĢ": 4468,
      "Ġdistribution": 4469,
      "Ġusername": 4470,
      "[idx": 4471,
      "incip": 4472,
      "Ġvir": 4473,
      "gex": 4474,
      "find": 4475,
      "ationship": 4476,
      "acity": 4477,
      "Ġmajor": 4478,
      "ĠĠĠĠĠĠĠĠĠĠĠĠĠĠĠĠĊ": 4479,
      "_up": 4480,
      "Ġpopulation": 4481,
      ".val": 4482,
      "è§": 4483,
      "_cl": 4484,
      "Ġproblems": 4485,
      "Ġsection": 4486,
      "ìŀ": 4487,
      "ĠÐ¾": 4488,
      "Ġapply": 4489,
      "imple": 4490,
      "Ġcertain": 4491,
      "alog": 4492,
      "ordinate": 4493,
      "Ġcau": 4494,
      ".width": 4495,
      ".input": 4496,
      "Ġvarious": 4497,
      "Ġrepe": 4498,
      "ĠNode": 4499,
      "Ġsymp": 4500,
      "used": 4501,
      ".db": 4502,
      "Ġseed": 4503,
      "ips": 4504,
      "Ġgive": 4505,
      "AX": 4506,
      "Ġsuggest": 4507,
      "Ġsay": 4508,
      "arts": 4509,
      "æ¯": 4510,
      "ious": 4511,
      "command": 4512,
      "ought": 4513,
      ".error": 4514,
      "[:-": 4515,
      "]ĊĊĊ": 4516,
      ".line": 4517,
      "Ġupper": 4518,
      "Ġdepth": 4519,
      "<=": 4520,
      "Ġdev": 4521,
      "=lambda": 4522,
      "Ġthreshold": 4523,
      "Ġimprove": 4524,
      "(min": 4525,
      "Ġimpact": 4526,
      "ëĭ¤": 4527,
      "quences": 4528,
      "Ġbrain": 4529,
      "tx": 4530,
      "vered": 4531,
      "Ġhidden": 4532,
      "Ñħ": 4533,
      "Ġkind": 4534,
      "04": 4535,
      "pped": 4536,
      "\":čĊ": 4537,
      "[m": 4538,
      "Ġpadding": 4539,
      "é¡": 4540,
      "Ġstates": 4541,
      "dim": 4542,
      "Ġfuture": 4543,
      "_trans": 4544,
      "bl": 4545,
      "ĠInput": 4546,
      "Īĺ": 4547,
      "_results": 4548,
      "(range": 4549,
      "Ġerr": 4550,
      "Ġconv": 4551,
      "Ġfolder": 4552,
      "(state": 4553,
      "QL": 4554,
      "_sent": 4555,
      "ret": 4556,
      "ĴĮ": 4557,
      "dist": 4558,
      "Ð¾Ð´": 4559,
      "Ġ[(": 4560,
      ".status": 4561,
      "like": 4562,
      "mbedding": 4563,
      "aves": 4564,
      "Ġnatural": 4565,
      "Ac": 4566,
      "Lay": 4567,
      "ibility": 4568,
      "85": 4569,
      "uid": 4570,
      "usters": 4571,
      "td": 4572,
      "Ġdriver": 4573,
      "Ġseveral": 4574,
      "Ġpub": 4575,
      "ĠApp": 4576,
      "Ġreduce": 4577,
      ".route": 4578,
      "latten": 4579,
      "Is": 4580,
      "step": 4581,
      "dated": 4582,
      "Ġsrc": 4583,
      "Ġdri": 4584,
      "ĠTODO": 4585,
      "Ġurllib": 4586,
      "Widget": 4587,
      "æľĢ": 4588,
      "Ġterms": 4589,
      "Add": 4590,
      "CC": 4591,
      ",self": 4592,
      "uplic": 4593,
      "'''ĊĊ": 4594,
      "erci": 4595,
      "ĠĠĠĠĠĠĠĠĠĠĠĠĠĠĠĠĠĠĠĠĠĠĠĠĠĠĠĠ": 4596,
      "ometry": 4597,
      "Ġmach": 4598,
      "trans": 4599,
      ".position": 4600,
      "ixels": 4601,
      ".search": 4602,
      "Ġrelative": 4603,
      "Ad": 4604,
      "rong": 4605,
      "anced": 4606,
      "loy": 4607,
      "/python": 4608,
      "fs": 4609,
      "Ġhard": 4610,
      "inear": 4611,
      "Ġser": 4612,
      "PS": 4613,
      "Ġevents": 4614,
      "Ġindu": 4615,
      "times": 4616,
      "Ġagainst": 4617,
      "Ġregion": 4618,
      "ourn": 4619,
      "_cor": 4620,
      "æŃ": 4621,
      "ivation": 4622,
      "Ġopt": 4623,
      "Ġ'Ċ": 4624,
      "Ġchannel": 4625,
      "Ġ\"%": 4626,
      "ĠAll": 4627,
      "]:": 4628,
      "ë¡": 4629,
      "åº¦": 4630,
      "_link": 4631,
      "ÃŃ": 4632,
      "create": 4633,
      "Ġmemory": 4634,
      "è¦ģ": 4635,
      "ynam": 4636,
      "urface": 4637,
      "aly": 4638,
      "(__": 4639,
      "Ġareas": 4640,
      "ĠTime": 4641,
      "Ġhold": 4642,
      "Ġjob": 4643,
      "Ġadded": 4644,
      "iginal": 4645,
      "ĠĠĠĠĠĠĠĠĠĠĠĠĠĠĠĠĠĠĠĠĠĠĠĠĠĠ": 4646,
      "ana": 4647,
      "ately": 4648,
      "Ġnegative": 4649,
      "_target": 4650,
      "cast": 4651,
      "Ġapproach": 4652,
      ".K": 4653,
      "Ġlat": 4654,
      ".color": 4655,
      "ĠDi": 4656,
      "Ġrunning": 4657,
      "(\"%": 4658,
      "ased": 4659,
      "Ġdataframe": 4660,
      "Ġprevent": 4661,
      "Ġfeel": 4662,
      "_level": 4663,
      "Ġep": 4664,
      "ured": 4665,
      "_status": 4666,
      "(index": 4667,
      "ĠFROM": 4668,
      "Ġign": 4669,
      "ĠĠĠĠĠĠĠĠĠĠĠĠĠĠĠĠĠĠĠĠĠĠĠĠĠĠĠĠĠĠĠĠĠĠĠĠĠĠĠ": 4670,
      "Ġdefined": 4671,
      "(my": 4672,
      ".now": 4673,
      "_cost": 4674,
      "+'": 4675,
      "Ġflu": 4676,
      "39": 4677,
      "Ġgeneral": 4678,
      "Ġeffects": 4679,
      "Ġgover": 4680,
      "Ġverbose": 4681,
      "åĽŀ": 4682,
      "Ġhandle": 4683,
      "Ġbi": 4684,
      "(current": 4685,
      "heta": 4686,
      "ĠNe": 4687,
      "[y": 4688,
      "_page": 4689,
      "(q": 4690,
      "ëĬĶ": 4691,
      ".commit": 4692,
      "Ġquestions": 4693,
      "Point": 4694,
      "(nums": 4695,
      "icult": 4696,
      "120": 4697,
      "_mo": 4698,
      "span": 4699,
      ".main": 4700,
      "Ġsen": 4701,
      "([[": 4702,
      "rag": 4703,
      "_true": 4704,
      "Ġclick": 4705,
      "Per": 4706,
      "fully": 4707,
      "AA": 4708,
      "olved": 4709,
      ".drop": 4710,
      "Ġheaders": 4711,
      "||": 4712,
      "ĠMy": 4713,
      "CE": 4714,
      "Ð·": 4715,
      "Ġzero": 4716,
      "Ġperformance": 4717,
      "ategories": 4718,
      "å·": 4719,
      "Ġgreat": 4720,
      "ished": 4721,
      "Ġwhy": 4722,
      "Box": 4723,
      "yes": 4724,
      "Ġreplace": 4725,
      "ulti": 4726,
      "_dataset": 4727,
      "(set": 4728,
      "content": 4729,
      "Ġexperience": 4730,
      "encies": 4731,
      "().__": 4732,
      "_button": 4733,
      "kely": 4734,
      "Ġstandard": 4735,
      "Soup": 4736,
      "Ġsimp": 4737,
      "Ġstyle": 4738,
      "Ġtesting": 4739,
      "etic": 4740,
      "Ġvol": 4741,
      "Ġbenef": 4742,
      "Ġmaking": 4743,
      "-c": 4744,
      "Ġord": 4745,
      "Ġlater": 4746,
      "uzz": 4747,
      "(\"/": 4748,
      "(cls": 4749,
      "ĠAt": 4750,
      "ä¸ĭ": 4751,
      "Ġcat": 4752,
      "Ġdetect": 4753,
      "ĠUse": 4754,
      "âĢľ": 4755,
      "answer": 4756,
      "Ġoptional": 4757,
      "opt": 4758,
      "endent": 4759,
      "stit": 4760,
      "ops": 4761,
      "ntry": 4762,
      "Ġmaximum": 4763,
      "curs": 4764,
      ".int": 4765,
      "_distance": 4766,
      "direct": 4767,
      "Inter": 4768,
      "Ġvert": 4769,
      "irth": 4770,
      "(id": 4771,
      "_SIZE": 4772,
      "From": 4773,
      "Ġseries": 4774,
      "URL": 4775,
      "How": 4776,
      "tion": 4777,
      "Ġscript": 4778,
      "Ġgoal": 4779,
      "ync": 4780,
      ".cursor": 4781,
      "Ġetc": 4782,
      "Classifier": 4783,
      "ised": 4784,
      "ĠPer": 4785,
      ")}": 4786,
      ".root": 4787,
      "Ġtogether": 4788,
      "Ġnote": 4789,
      ")čĊčĊčĊ": 4790,
      "Ġdp": 4791,
      "ë¥": 4792,
      "Ġkeras": 4793,
      "############": 4794,
      "åĲİ": 4795,
      "ignal": 4796,
      "_grid": 4797,
      "Ġactive": 4798,
      "lan": 4799,
      "Ġnumer": 4800,
      "ga": 4801,
      "Check": 4802,
      "At": 4803,
      "Please": 4804,
      "ç§": 4805,
      "lies": 4806,
      "section": 4807,
      "Ġintern": 4808,
      "Ġ{}'.": 4809,
      "Sub": 4810,
      "store": 4811,
      "Ġalgorithm": 4812,
      "hood": 4813,
      "ĠNOT": 4814,
      "Sum": 4815,
      "Ġsn": 4816,
      "ĠUS": 4817,
      "ircle": 4818,
      "cho": 4819,
      "ffe": 4820,
      "(board": 4821,
      "Get": 4822,
      "ODE": 4823,
      "pes": 4824,
      "Ġtests": 4825,
      "aring": 4826,
      "ATH": 4827,
      "csv": 4828,
      "æłĩ": 4829,
      "Ġrelated": 4830,
      "',čĊ": 4831,
      "UE": 4832,
      "ĠLog": 4833,
      "')[": 4834,
      "Ġnecessary": 4835,
      "GR": 4836,
      "dis": 4837,
      "chan": 4838,
      "win": 4839,
      "Ġparts": 4840,
      "(L": 4841,
      "ĠCont": 4842,
      "Ġ},Ċ": 4843,
      "ÐµÐ¼": 4844,
      "ä¾": 4845,
      "Ġ):Ċ": 4846,
      "Ġfrequency": 4847,
      "pack": 4848,
      "roller": 4849,
      "Ġbottom": 4850,
      "ĠĠĠĠĠĠĠĠĠĠĠĠĠĠĠĠĠĠĠĠĠĠĠĠĠĠĠĠĠĠĠĠĠĠĠĠĠĠĠĠĠĠĠĠĠĠĠĠĠĠĠĠĠĠĠĠĠĠĠĠĠĠĠĠ": 4851,
      "Ġlit": 4852,
      "_top": 4853,
      "Output": 4854,
      ")))ĊĊ": 4855,
      "this": 4856,
      "blem": 4857,
      "ws": 4858,
      "999": 4859,
      "ĠBy": 4860,
      "Ġmaint": 4861,
      ".u": 4862,
      ".object": 4863,
      "(db": 4864,
      "Ġerrors": 4865,
      "opy": 4866,
      "250": 4867,
      "Ġdelete": 4868,
      "_template": 4869,
      "Ġalong": 4870,
      "IO": 4871,
      ".check": 4872,
      "RL": 4873,
      "AY": 4874,
      ".sin": 4875,
      "ĠString": 4876,
      "_mode": 4877,
      "roy": 4878,
      "Row": 4879,
      ".new": 4880,
      "(message": 4881,
      "filename": 4882,
      "aved": 4883,
      "_ext": 4884,
      "lice": 4885,
      "points": 4886,
      "_ad": 4887,
      "Ġtheta": 4888,
      "(),Ċ": 4889,
      "Ġcountry": 4890,
      "alculate": 4891,
      "gent": 4892,
      "vec": 4893,
      "Ġpatients": 4894,
      "........": 4895,
      "TER": 4896,
      "char": 4897,
      "ìĦ": 4898,
      "Ġcomputer": 4899,
      "_char": 4900,
      "autifulSoup": 4901,
      "(string": 4902,
      "ĠUp": 4903,
      "ï¼ī": 4904,
      "Ġtakes": 4905,
      "(count": 4906,
      ".player": 4907,
      "lide": 4908,
      "_right": 4909,
      "post": 4910,
      "¦Ĥ": 4911,
      "exp": 4912,
      "_channels": 4913,
      "chie": 4914,
      "Ġ[-": 4915,
      "Ġdetermin": 4916,
      "Ġengine": 4917,
      "Ġquality": 4918,
      "way": 4919,
      "Int": 4920,
      "ession": 4921,
      "Ġexists": 4922,
      "/b": 4923,
      "izing": 4924,
      "åĴĮ": 4925,
      "ĠModel": 4926,
      "ĠOb": 4927,
      "_lines": 4928,
      "font": 4929,
      "uel": 4930,
      ".W": 4931,
      "Ġfac": 4932,
      "(val": 4933,
      "@app": 4934,
      "ï¼Ī": 4935,
      "_IN": 4936,
      "Ġobtain": 4937,
      "Ġawait": 4938,
      "08": 4939,
      "Ġrespect": 4940,
      "Ġconstruct": 4941,
      "ĠFile": 4942,
      "Ġeconom": 4943,
      "Ġattr": 4944,
      ")).": 4945,
      "lation": 4946,
      "Ġseq": 4947,
      "Ġseconds": 4948,
      "Ġcategory": 4949,
      ".ndarray": 4950,
      "OUT": 4951,
      "ped": 4952,
      "ising": 4953,
      "Ġworking": 4954,
      "uded": 4955,
      "Ġdic": 4956,
      "ĠIs": 4957,
      ".exists": 4958,
      ".assertTrue": 4959,
      "Ġpoly": 4960,
      "íķĺ": 4961,
      "reed": 4962,
      "Ġfamily": 4963,
      ":,": 4964,
      "Ġdeep": 4965,
      "Ġscores": 4966,
      "Ġ?": 4967,
      "Ġothers": 4968,
      "éĻ": 4969,
      ".choice": 4970,
      "SON": 4971,
      "mi": 4972,
      "Ġum": 4973,
      "ĠClass": 4974,
      "æĸĩä»¶": 4975,
      "case": 4976,
      "dig": 4977,
      "Ġnet": 4978,
      "Ġask": 4979,
      "ĥ½": 4980,
      "tep": 4981,
      "bon": 4982,
      ".cont": 4983,
      "Ġ\"-": 4984,
      "Ġunittest": 4985,
      "ellow": 4986,
      "06": 4987,
      "ì§": 4988,
      "_normal": 4989,
      ".concat": 4990,
      "\"),Ċ": 4991,
      "ĠNumber": 4992,
      "Ġdifference": 4993,
      "oogle": 4994,
      "_att": 4995,
      "hic": 4996,
      "åŃĺ": 4997,
      "Ġmass": 4998,
      "ares": 4999,
      "names": 5000,
      "black": 5001,
      "ĠOne": 5002,
      "BT": 5003,
      "ĠQu": 5004,
      ".he": 5005,
      "ament": 5006,
      "ĠRead": 5007,
      "Ġaccept": 5008,
      "-----": 5009,
      "cles": 5010,
      "Ġaccording": 5011,
      "Ġdoesn": 5012,
      "Ġcity": 5013,
      "Total": 5014,
      "æĶ": 5015,
      "Ġstream": 5016,
      "Ġstudies": 5017,
      "Ġblack": 5018,
      "_order": 5019,
      "ĠST": 5020,
      "ÑĪ": 5021,
      "Ġuses": 5022,
      "'])": 5023,
      "_box": 5024,
      ".ed": 5025,
      "clude": 5026,
      "_var": 5027,
      "Ġprogra": 5028,
      "Code": 5029,
      "atory": 5030,
      "(float": 5031,
      "ĠGPIO": 5032,
      "Ġknowledge": 5033,
      "white": 5034,
      "Ġprior": 5035,
      ".pos": 5036,
      "Ġonce": 5037,
      "rad": 5038,
      "zy": 5039,
      "amin": 5040,
      "Ed": 5041,
      "lin": 5042,
      "ĠSome": 5043,
      "There": 5044,
      "Ġcoordinates": 5045,
      "ë¡ľ": 5046,
      "Ġrecent": 5047,
      "_edge": 5048,
      "å¤§": 5049,
      "fg": 5050,
      "Element": 5051,
      "_total": 5052,
      "Ġste": 5053,
      "Ġfurther": 5054,
      "åĲį": 5055,
      "score": 5056,
      "Ġfar": 5057,
      "~~~~~~~~": 5058,
      "ots": 5059,
      "tail": 5060,
      "77": 5061,
      "loop": 5062,
      "tf": 5063,
      "rodu": 5064,
      "ĠĠĠĊ": 5065,
      "Ġinstead": 5066,
      "ilon": 5067,
      "Ġreference": 5068,
      "ĠCan": 5069,
      "Ġearly": 5070,
      "ariables": 5071,
      "Ġacross": 5072,
      "bb": 5073,
      "omin": 5074,
      "Ġbin": 5075,
      "Ġmakes": 5076,
      "cular": 5077,
      "é¢": 5078,
      "ĠÂ": 5079,
      "\")čĊčĊ": 5080,
      "Ġmen": 5081,
      "pri": 5082,
      "(frame": 5083,
      "And": 5084,
      "101": 5085,
      "Ġdifficult": 5086,
      "next": 5087,
      "Ġdomain": 5088,
      "center": 5089,
      "lie": 5090,
      ")**": 5091,
      "(request": 5092,
      "Ġfactors": 5093,
      "_weight": 5094,
      "=\"\"": 5095,
      "Ġseen": 5096,
      "ĠPath": 5097,
      "ĠUniversity": 5098,
      "car": 5099,
      "ivo": 5100,
      "DB": 5101,
      "field": 5102,
      "atures": 5103,
      "Message": 5104,
      "]])Ċ": 5105,
      ".\"Ċ": 5106,
      "One": 5107,
      "({'": 5108,
      "/(": 5109,
      "_db": 5110,
      "andidate": 5111,
      "!\")Ċ": 5112,
      "())čĊ": 5113,
      "Ġreason": 5114,
      "Users": 5115,
      "88": 5116,
      "iliz": 5117,
      ".legend": 5118,
      "Ġlayers": 5119,
      "oring": 5120,
      "Ġtw": 5121,
      "}'.": 5122,
      "åĩ½": 5123,
      "Ġarch": 5124,
      "-------Ċ": 5125,
      "swith": 5126,
      "Ġconcept": 5127,
      "Ġanim": 5128,
      "Ġrelationship": 5129,
      "Ġxrange": 5130,
      "ãĢģ": 5131,
      "pth": 5132,
      "team": 5133,
      "_column": 5134,
      "_loc": 5135,
      "Ġprovides": 5136,
      "]==": 5137,
      "Ġpassed": 5138,
      "[row": 5139,
      "Ġsaid": 5140,
      "PL": 5141,
      "aur": 5142,
      "Train": 5143,
      "ĠDes": 5144,
      "Ġtoday": 5145,
      "Ġrecomm": 5146,
      "sample": 5147,
      "Ġenough": 5148,
      "ìł": 5149,
      "Ġindices": 5150,
      "ART": 5151,
      "))čĊčĊ": 5152,
      "éĿ": 5153,
      "\":\"": 5154,
      "Ġlinear": 5155,
      "New": 5156,
      "600": 5157,
      "Ġlikely": 5158,
      "Ġsquare": 5159,
      "Ġcharacters": 5160,
      "Ġbasic": 5161,
      "_an": 5162,
      "Ð¸Ñģ": 5163,
      "Ġprimary": 5164,
      "________________": 5165,
      "ĠOR": 5166,
      ".parent": 5167,
      "results": 5168,
      "ãĤĴ": 5169,
      "Ġgreater": 5170,
      "osp": 5171,
      "-in": 5172,
      "_move": 5173,
      "_folder": 5174,
      "}\")Ċ": 5175,
      "normal": 5176,
      "Ġcontinu": 5177,
      "Ġ(-": 5178,
      "(cur": 5179,
      "ÑĨ": 5180,
      "_counts": 5181,
      "Ġcome": 5182,
      "()))Ċ": 5183,
      "radius": 5184,
      "åĩ½æķ°": 5185,
      "allback": 5186,
      "Ġcrit": 5187,
      "Ġattack": 5188,
      "ftime": 5189,
      "Ġvisited": 5190,
      "Ġeps": 5191,
      "Ġden": 5192,
      "Ġedges": 5193,
      "Ġchoose": 5194,
      ".all": 5195,
      "_transform": 5196,
      "(o": 5197,
      "å±": 5198,
      "(sub": 5199,
      "Ġwhite": 5200,
      "=str": 5201,
      "Ġ]": 5202,
      "Ġgovern": 5203,
      "_weights": 5204,
      "_window": 5205,
      "ç¬¦": 5206,
      "ba": 5207,
      "lain": 5208,
      "alysis": 5209,
      "SC": 5210,
      "Ġfri": 5211,
      "-t": 5212,
      "ç¤": 5213,
      "Ġment": 5214,
      "Ġri": 5215,
      "_is": 5216,
      ".height": 5217,
      "ĠBeautifulSoup": 5218,
      "Ġapplication": 5219,
      "params": 5220,
      "_tag": 5221,
      ",âĢĿ": 5222,
      "Ġways": 5223,
      "opulation": 5224,
      "Ġstarting": 5225,
      "Ġprom": 5226,
      ".blit": 5227,
      "ustr": 5228,
      "_game": 5229,
      "_q": 5230,
      "(number": 5231,
      "Ñİ": 5232,
      "ras": 5233,
      "åīį": 5234,
      ")),Ċ": 5235,
      "Run": 5236,
      "uck": 5237,
      "(log": 5238,
      "_V": 5239,
      "_images": 5240,
      "éĩı": 5241,
      "Ġactivities": 5242,
      "Ġgrowth": 5243,
      ".cos": 5244,
      "WN": 5245,
      "âķ": 5246,
      "Ġgoing": 5247,
      "Ġscient": 5248,
      ".init": 5249,
      "_classes": 5250,
      "Ġstock": 5251,
      "åĽ¾": 5252,
      "ranch": 5253,
      "ç¬¬": 5254,
      "Mo": 5255,
      "semb": 5256,
      "_le": 5257,
      "Ġdetermine": 5258,
      "ATION": 5259,
      "Ġdat": 5260,
      "ĠAPI": 5261,
      "ortun": 5262,
      "Ġparticip": 5263,
      "Ġtab": 5264,
      "ÐµÐ½Ð¸": 5265,
      "uter": 5266,
      "ĠĠĠĠĠĠĠĠĠĠĠĠĠĠĠĠĠĠĠĠĠĠĠĠĠĠĠĠĠ": 5267,
      "Ġbio": 5268,
      "SELECT": 5269,
      "annot": 5270,
      "mod": 5271,
      "Ġcnt": 5272,
      "Ġestim": 5273,
      "ç½®": 5274,
      "dev": 5275,
      "Ġusually": 5276,
      "Ġserial": 5277,
      "axes": 5278,
      "Ġamong": 5279,
      "46": 5280,
      "Ġimm": 5281,
      "offset": 5282,
      "ÐµÐ»": 5283,
      "49": 5284,
      "Ð½Ñĭ": 5285,
      "Ġensure": 5286,
      "Ġactions": 5287,
      "Ġattribute": 5288,
      "Handler": 5289,
      ".ac": 5290,
      "Ġservice": 5291,
      ");Ċ": 5292,
      "=c": 5293,
      "though": 5294,
      "Ġchallen": 5295,
      "åĿ": 5296,
      "(\".": 5297,
      "Ġsite": 5298,
      "style": 5299,
      "irm": 5300,
      "ĠLicense": 5301,
      "based": 5302,
      "aily": 5303,
      "lt": 5304,
      "Ġdimension": 5305,
      "Ġprediction": 5306,
      "ATA": 5307,
      "toms": 5308,
      "Ġtokens": 5309,
      ")):čĊ": 5310,
      "icode": 5311,
      "Config": 5312,
      "(response": 5313,
      "ensive": 5314,
      "ropri": 5315,
      ",len": 5316,
      "Ġ'+": 5317,
      "quired": 5318,
      "Ġdamage": 5319,
      "eighbors": 5320,
      "ĠDE": 5321,
      "II": 5322,
      "rength": 5323,
      "(label": 5324,
      "æĮ": 5325,
      "amb": 5326,
      "files": 5327,
      "_year": 5328,
      "ĠRep": 5329,
      "arth": 5330,
      "Ġregular": 5331,
      "ãĢĤĊ": 5332,
      "\"\\": 5333,
      "Ġnear": 5334,
      "tools": 5335,
      "lier": 5336,
      "END": 5337,
      "apter": 5338,
      ",d": 5339,
      "ĉt": 5340,
      "redu": 5341,
      "Ġvisual": 5342,
      "ĠWith": 5343,
      "Arg": 5344,
      "Ġhaving": 5345,
      "('%": 5346,
      "ÑĢÐ°Ð": 5347,
      "_response": 5348,
      "ango": 5349,
      "Ġcontact": 5350,
      "Ġresources": 5351,
      "07": 5352,
      "ĠMed": 5353,
      "Ġfail": 5354,
      "Ġinside": 5355,
      "home": 5356,
      "_counter": 5357,
      "Ġvalidation": 5358,
      "wers": 5359,
      "Ð±": 5360,
      "onal": 5361,
      "oom": 5362,
      "OLOR": 5363,
      "ç¤º": 5364,
      "aussian": 5365,
      "ìĿĺ": 5366,
      "Ġphysical": 5367,
      "(type": 5368,
      "vents": 5369,
      "Ġip": 5370,
      "Ġlists": 5371,
      ".at": 5372,
      "47": 5373,
      "Ġeng": 5374,
      "Ġachie": 5375,
      "ĠCre": 5376,
      "Ġproper": 5377,
      "Ġwhole": 5378,
      "second": 5379,
      "Ġproducts": 5380,
      "Ġpressure": 5381,
      "Ġautom": 5382,
      "ides": 5383,
      "è¿Ļ": 5384,
      "With": 5385,
      "entry": 5386,
      "------------------------": 5387,
      "Ġagent": 5388,
      "Ġtyping": 5389,
      "ĠTree": 5390,
      ">=": 5391,
      "Matrix": 5392,
      "(date": 5393,
      "_vector": 5394,
      "Ġaway": 5395,
      "uy": 5396,
      "mag": 5397,
      "Ġ'_": 5398,
      "Ġplant": 5399,
      "orizont": 5400,
      "Ġguess": 5401,
      "OV": 5402,
      "Ġbg": 5403,
      "Ġwriting": 5404,
      "'re": 5405,
      "Ġreading": 5406,
      "åºı": 5407,
      "olute": 5408,
      "Map": 5409,
      "cut": 5410,
      "/p": 5411,
      "airs": 5412,
      ".savefig": 5413,
      "Ġill": 5414,
      "correct": 5415,
      "park": 5416,
      ".Con": 5417,
      "ados": 5418,
      "Ġrecogn": 5419,
      ".*": 5420,
      "rays": 5421,
      "processing": 5422,
      "à¸": 5423,
      "å¼ı": 5424,
      "Ġè": 5425,
      "')čĊčĊ": 5426,
      "Ġmenu": 5427,
      "cade": 5428,
      "Ġbackground": 5429,
      "_{": 5430,
      ".extend": 5431,
      "_content": 5432,
      ".utils": 5433,
      "Ġresp": 5434,
      "è¿Ľ": 5435,
      "Ġbeta": 5436,
      ".query": 5437,
      "Ġshown": 5438,
      "Ġcolors": 5439,
      "Var": 5440,
      "Ġtaken": 5441,
      ".jpg": 5442,
      "imilar": 5443,
      ".board": 5444,
      "ques": 5445,
      "_H": 5446,
      ".move": 5447,
      "Ġmut": 5448,
      "ĠPy": 5449,
      "ĠSci": 5450,
      "Ġoperation": 5451,
      "09": 5452,
      "Base": 5453,
      "_ST": 5454,
      "position": 5455,
      ",i": 5456,
      "Created": 5457,
      "Ġexplo": 5458,
      "Ġrule": 5459,
      "è¾ĵåħ¥": 5460,
      "can": 5461,
      "Ġheart": 5462,
      ".base": 5463,
      "={}": 5464,
      "Ġmeta": 5465,
      "Ġbytes": 5466,
      ".lin": 5467,
      "Ġexpression": 5468,
      "_K": 5469,
      "ĠĠĠĠĠĠĠĠĠĠĠĠĠĠĠĠĠĠĠĠĠĠĠĠĠĠĠĠĠĠ": 5470,
      "dataset": 5471,
      "weets": 5472,
      "inder": 5473,
      "sential": 5474,
      "ales": 5475,
      ".delete": 5476,
      "Ġalign": 5477,
      "Ġeducation": 5478,
      "ĠFunction": 5479,
      ".writer": 5480,
      "ìĿĦ": 5481,
      "Ġstrong": 5482,
      "grees": 5483,
      "Ġìŀ": 5484,
      ".')Ċ": 5485,
      "Ġdisco": 5486,
      "mar": 5487,
      "_change": 5488,
      "Ð¹": 5489,
      "Ġful": 5490,
      "æīĢ": 5491,
      "draw": 5492,
      "è¿Ķ": 5493,
      "ĠDis": 5494,
      "ABLE": 5495,
      "æµ": 5496,
      "blue": 5497,
      "_location": 5498,
      "})": 5499,
      "Ġproduction": 5500,
      "åħĥ": 5501,
      "HERE": 5502,
      "Ġca": 5503,
      "Ġtkinter": 5504,
      "ueue": 5505,
      "_indices": 5506,
      "(sum": 5507,
      "Di": 5508,
      "ë¥¼": 5509,
      "roid": 5510,
      "_load": 5511,
      "æ¨": 5512,
      "ĠÑĤ": 5513,
      "Ġwriter": 5514,
      "ĠAss": 5515,
      "sk": 5516,
      "Ġce": 5517,
      "Ġextra": 5518,
      "rapper": 5519,
      ".qu": 5520,
      "Ġunderstanding": 5521,
      "Ġchem": 5522,
      "Do": 5523,
      "RI": 5524,
      "pare": 5525,
      "olar": 5526,
      "åĬł": 5527,
      "Ġproperty": 5528,
      "wb": 5529,
      "status": 5530,
      "56": 5531,
      "Inte": 5532,
      "_scores": 5533,
      "tection": 5534,
      "click": 5535,
      "window": 5536,
      "Ġ}ĊĊ": 5537,
      "cii": 5538,
      "Ġbehavior": 5539,
      "ç®Ĺ": 5540,
      "Ġjoin": 5541,
      "Ġho": 5542,
      "\">": 5543,
      "Ġbr": 5544,
      "_player": 5545,
      "\"][\"": 5546,
      "known": 5547,
      "ĠTHE": 5548,
      "mpl": 5549,
      "Ġlos": 5550,
      "rea": 5551,
      ".transform": 5552,
      "Ġreward": 5553,
      "Ġmechan": 5554,
      "%%": 5555,
      "Ġsettings": 5556,
      "Ġcalc": 5557,
      "Ġdebug": 5558,
      "Ġground": 5559,
      "å¸": 5560,
      "Ġsmo": 5561,
      "forward": 5562,
      "Ġstats": 5563,
      "Ġnorm": 5564,
      "lid": 5565,
      "_equal": 5566,
      ".print": 5567,
      "vo": 5568,
      "198": 5569,
      "RES": 5570,
      "ĠReg": 5571,
      "]],": 5572,
      "Ġpast": 5573,
      "_G": 5574,
      "ently": 5575,
      "Ġther": 5576,
      "ogram": 5577,
      "Ġquick": 5578,
      "=n": 5579,
      "OK": 5580,
      "Ġsoftware": 5581,
      "Ġreturned": 5582,
      "(\"\"": 5583,
      "Ġdownload": 5584,
      "Ġmu": 5585,
      "Ġhours": 5586,
      "Ġinflu": 5587,
      ",t": 5588,
      "Ġcomponents": 5589,
      "åİ": 5590,
      "letter": 5591,
      "ÐµÐ´": 5592,
      "98": 5593,
      "Ġwait": 5594,
      "Ġmulti": 5595,
      "(R": 5596,
      "FA": 5597,
      "ĠÃ": 5598,
      "images": 5599,
      "Ġ%(": 5600,
      "cra": 5601,
      "idered": 5602,
      "Ġexception": 5603,
      ".conv": 5604,
      "Ġrecords": 5605,
      "rist": 5606,
      ".Get": 5607,
      "æ¬": 5608,
      "Ġexisting": 5609,
      "Ġtechnology": 5610,
      "Ġminimum": 5611,
      "ĠSer": 5612,
      "Ġeffective": 5613,
      "Ġlon": 5614,
      "player": 5615,
      "DS": 5616,
      "-based": 5617,
      "@author": 5618,
      "Ser": 5619,
      "Ġforce": 5620,
      "Ġconsidered": 5621,
      "cription": 5622,
      "rase": 5623,
      "Ġvolume": 5624,
      "Ġmovie": 5625,
      "Ġglob": 5626,
      "ä½¿": 5627,
      "_part": 5628,
      "Ġseg": 5629,
      ".top": 5630,
      "Ġê°": 5631,
      "å°ı": 5632,
      "ipel": 5633,
      "dule": 5634,
      "Ġavoid": 5635,
      "%(": 5636,
      "ç¨": 5637,
      "select": 5638,
      "ĠÐ·": 5639,
      "ìĹĲ": 5640,
      "ercise": 5641,
      "abc": 5642,
      "|Ċ": 5643,
      "rtype": 5644,
      "Ġratio": 5645,
      ".fetch": 5646,
      "mg": 5647,
      "ĉc": 5648,
      "\"],Ċ": 5649,
      "ternal": 5650,
      "Ġdetails": 5651,
      "Ġcorresponding": 5652,
      "]}": 5653,
      "ìļ": 5654,
      ",(": 5655,
      "za": 5656,
      "Ġcomponent": 5657,
      "Ġhalf": 5658,
      "ERT": 5659,
      "abilities": 5660,
      "Ġability": 5661,
      "Ġinterval": 5662,
      "(size": 5663,
      "orizontal": 5664,
      ".\\": 5665,
      "ĠOF": 5666,
      "äºİ": 5667,
      "ĠMat": 5668,
      "iff": 5669,
      "Ġstrings": 5670,
      "Ġidentify": 5671,
      "PUT": 5672,
      "plan": 5673,
      "111": 5674,
      "çŃ": 5675,
      "Ġpal": 5676,
      "(fig": 5677,
      "using": 5678,
      "Ġsolve": 5679,
      ")]ĊĊ": 5680,
      ".last": 5681,
      "body": 5682,
      "Ġpan": 5683,
      ".objects": 5684,
      "Cur": 5685,
      "ĠAct": 5686,
      "]))ĊĊ": 5687,
      "_seq": 5688,
      "itation": 5689,
      "Ġdrop": 5690,
      "ĠHT": 5691,
      "[r": 5692,
      "classmethod": 5693,
      ".game": 5694,
      "41": 5695,
      "ja": 5696,
      "Ġlittle": 5697,
      "efore": 5698,
      "peak": 5699,
      "_E": 5700,
      "mpt": 5701,
      ".file": 5702,
      "Ġfigure": 5703,
      "ables": 5704,
      "ĠSee": 5705,
      "ä½ľ": 5706,
      "argest": 5707,
      "hest": 5708,
      "çº": 5709,
      "Ġliter": 5710,
      "(obj": 5711,
      "vate": 5712,
      ".readlines": 5713,
      "ltk": 5714,
      "chema": 5715,
      "ULT": 5716,
      "upport": 5717,
      "_head": 5718,
      "dm": 5719,
      "onent": 5720,
      "'])ĊĊ": 5721,
      "coded": 5722,
      "Ġmanagement": 5723,
      "Ġexam": 5724,
      "iting": 5725,
      "ĠOptional": 5726,
      "atives": 5727,
      "Ġmarket": 5728,
      "article": 5729,
      "ownload": 5730,
      "Ġissues": 5731,
      "assert": 5732,
      "(msg": 5733,
      "CRE": 5734,
      "ĠOutput": 5735,
      "(True": 5736,
      "den": 5737,
      "_be": 5738,
      "Ġallows": 5739,
      "_Y": 5740,
      "eff": 5741,
      "Ġcache": 5742,
      "ä¸Ĭ": 5743,
      "ici": 5744,
      "Search": 5745,
      "(\"-": 5746,
      "ino": 5747,
      "loyee": 5748,
      "ç»ĵ": 5749,
      "_base": 5750,
      "servation": 5751,
      ".\"": 5752,
      "Loc": 5753,
      "agent": 5754,
      "alt": 5755,
      "pygame": 5756,
      "Ġprincip": 5757,
      "oday": 5758,
      "inf": 5759,
      "Ġwide": 5760,
      "Read": 5761,
      "ĠAmerican": 5762,
      "_diff": 5763,
      "Ġlibr": 5764,
      "_action": 5765,
      "İ·": 5766,
      "username": 5767,
      "Function": 5768,
      "FO": 5769,
      "Ġpiece": 5770,
      "Ġhim": 5771,
      "Ġentire": 5772,
      "rices": 5773,
      ".loads": 5774,
      "Ġtick": 5775,
      "Ġbuff": 5776,
      "]).": 5777,
      "ributed": 5778,
      "cr": 5779,
      "Ġadj": 5780,
      "_board": 5781,
      "Ġmaterials": 5782,
      "where": 5783,
      "Length": 5784,
      "ises": 5785,
      "ä½į": 5786,
      "Ġwon": 5787,
      ".score": 5788,
      "_search": 5789,
      "limit": 5790,
      "sys": 5791,
      "rot": 5792,
      "(arg": 5793,
      "čĊčĊčĊčĊ": 5794,
      "ĠMo": 5795,
      ".Tile": 5796,
      "Ġpractice": 5797,
      "ACK": 5798,
      "Ġcriter": 5799,
      "Event": 5800,
      "800": 5801,
      "Invalid": 5802,
      "Ġoperator": 5803,
      "Ġproperties": 5804,
      "aging": 5805,
      "ĠÐ¼": 5806,
      "vector": 5807,
      "Ġavg": 5808,
      "æİ¥": 5809,
      "fill": 5810,
      "_ID": 5811,
      ".request": 5812,
      ".ones": 5813,
      "¸°": 5814,
      "ĠĠĠĠĊĊ": 5815,
      "repr": 5816,
      "Ġitself": 5817,
      "Ġpolicy": 5818,
      "ĠCal": 5819,
      "urope": 5820,
      "block": 5821,
      "Ġwar": 5822,
      ".end": 5823,
      "shape": 5824,
      "è¿ĶåĽŀ": 5825,
      "=%": 5826,
      "(json": 5827,
      "-z": 5828,
      "ĠInitial": 5829,
      "åĮĸ": 5830,
      "Ġappropri": 5831,
      "cols": 5832,
      "ĠSub": 5833,
      "ulations": 5834,
      "akes": 5835,
      "hs": 5836,
      "ombre": 5837,
      "ĠYour": 5838,
      "ampling": 5839,
      "Ġreader": 5840,
      "96": 5841,
      ">>>": 5842,
      "igin": 5843,
      "Ġradius": 5844,
      "Ġconstant": 5845,
      "Ġattributes": 5846,
      "_next": 5847,
      "Ġdiscu": 5848,
      "Vector": 5849,
      "Ġrather": 5850,
      "ĠMan": 5851,
      "ĠDec": 5852,
      "Def": 5853,
      "(get": 5854,
      "Ġgl": 5855,
      "Ġir": 5856,
      ".env": 5857,
      "osis": 5858,
      "quential": 5859,
      "green": 5860,
      "close": 5861,
      "ìĪĺ": 5862,
      "Word": 5863,
      "ĠĠĠĠĊĠĠĠĠĊ": 5864,
      "Ġfront": 5865,
      "CTION": 5866,
      "_items": 5867,
      "GameTree": 5868,
      ".TileGameTree": 5869,
      "atterns": 5870,
      "igmo": 5871,
      "ĠFind": 5872,
      "password": 5873,
      "Ġsheet": 5874,
      "Ġattemp": 5875,
      "âĸĪâĸĪâĸĪâĸĪ": 5876,
      "ae": 5877,
      "ĠAny": 5878,
      "Ġ-------Ċ": 5879,
      "Ġtermin": 5880,
      "Ġtensorflow": 5881,
      "page": 5882,
      "Ġconsist": 5883,
      "Ð¾Ð¼": 5884,
      "rade": 5885,
      "('--": 5886,
      "),(": 5887,
      "_qu": 5888,
      "jango": 5889,
      "Te": 5890,
      "ĠText": 5891,
      "Ġexpect": 5892,
      "mall": 5893,
      "CM": 5894,
      "éĽ": 5895,
      "Ġpen": 5896,
      "={'": 5897,
      "cp": 5898,
      "Ġhowever": 5899,
      "Ġ\"))Ċ": 5900,
      ".H": 5901,
      "Ġrank": 5902,
      "Valid": 5903,
      "ĠMin": 5904,
      "ĠButton": 5905,
      "Ġcli": 5906,
      "Ġyet": 5907,
      "uper": 5908,
      ".scatter": 5909,
      "ĠTe": 5910,
      "Ġorigin": 5911,
      "long": 5912,
      "igmoid": 5913,
      "Ġexamples": 5914,
      "Ġsigma": 5915,
      ".filter": 5916,
      "Ġmaintain": 5917,
      "aste": 5918,
      "Ġmicro": 5919,
      "Ġexperiment": 5920,
      "udio": 5921,
      "Ġgreen": 5922,
      "omial": 5923,
      "Ġcompar": 5924,
      "********************************": 5925,
      "gt": 5926,
      "stop": 5927,
      ".startswith": 5928,
      "Ġmissing": 5929,
      "ONT": 5930,
      "button": 5931,
      "Ġskills": 5932,
      "Temp": 5933,
      "_entry": 5934,
      "Ġappear": 5935,
      ".wait": 5936,
      "has": 5937,
      "Ġatom": 5938,
      ".Col": 5939,
      "76": 5940,
      "egin": 5941,
      "Ġassess": 5942,
      "kl": 5943,
      "Ġpain": 5944,
      "43": 5945,
      "hib": 5946,
      "PT": 5947,
      "isode": 5948,
      "Ġnoise": 5949,
      "(random": 5950,
      "Ġprogress": 5951,
      "ĠBase": 5952,
      "Ġvia": 5953,
      "_run": 5954,
      ".dumps": 5955,
      "So": 5956,
      "luster": 5957,
      "Ġsitu": 5958,
      "033": 5959,
      "ROR": 5960,
      ".models": 5961,
      "Ġfrequ": 5962,
      "Ġprotect": 5963,
      "Ġpredictions": 5964,
      "si": 5965,
      ".čĊčĊ": 5966,
      "ĠURL": 5967,
      "_sample": 5968,
      "äºĨ": 5969,
      "func": 5970,
      "Ġcomment": 5971,
      "_rows": 5972,
      "Ġspect": 5973,
      "mory": 5974,
      "lots": 5975,
      "Ġapi": 5976,
      "-h": 5977,
      "ucle": 5978,
      "Ġgain": 5979,
      ".fill": 5980,
      "Ġ###": 5981,
      "uk": 5982,
      "tains": 5983,
      "Ġprocesses": 5984,
      "Ġwave": 5985,
      "limate": 5986,
      "LU": 5987,
      "Ġfalse": 5988,
      "Ġadditional": 5989,
      "ĠGame": 5990,
      "Ġutils": 5991,
      "icate": 5992,
      "Ġuseful": 5993,
      "Ġresource": 5994,
      ")s": 5995,
      ".iter": 5996,
      "Ġunits": 5997,
      "Ġmetrics": 5998,
      "oll": 5999,
      "relu": 6000,
      "Ġfi": 6001,
      "Ġchunk": 6002,
      "(en": 6003,
      "Ġbs": 6004,
      "Ġdeveloped": 6005,
      "abled": 6006,
      ".match": 6007,
      "mplete": 6008,
      "ĠVal": 6009,
      "Ġoutputs": 6010,
      "_space": 6011,
      "360": 6012,
      "Ġcos": 6013,
      "curity": 6014,
      "Ð°Ð»": 6015,
      "gon": 6016,
      "_fit": 6017,
      "pecially": 6018,
      "Ġgenerated": 6019,
      "Ġprobability": 6020,
      "ê³": 6021,
      "yl": 6022,
      "Ġchain": 6023,
      "éĹ´": 6024,
      "Ġemb": 6025,
      "inalg": 6026,
      "Ġrem": 6027,
      "Ġbusiness": 6028,
      "Ġmagn": 6029,
      ":\")Ċ": 6030,
      "Ġlate": 6031,
      "ached": 6032,
      "_steps": 6033,
      "Out": 6034,
      ".reg": 6035,
      "ORT": 6036,
      "uman": 6037,
      "_gen": 6038,
      "Ġcmd": 6039,
      "Ġactually": 6040,
      "-m": 6041,
      "Ġmis": 6042,
      "_types": 6043,
      "(',": 6044,
      "åŀ": 6045,
      "apy": 6046,
      "Ġbias": 6047,
      "\"][": 6048,
      "uses": 6049,
      "ptimizer": 6050,
      "Ġprefix": 6051,
      "Ġsymptoms": 6052,
      "]čĊčĊ": 6053,
      "CO": 6054,
      "_feature": 6055,
      "Ġexact": 6056,
      "ĠÐ¿ÑĢ": 6057,
      "ipeline": 6058,
      "edge": 6059,
      "limiter": 6060,
      "ãĤĭ": 6061,
      "MA": 6062,
      "price": 6063,
      "_first": 6064,
      "Amount": 6065,
      "Ġwritten": 6066,
      "ithub": 6067,
      "question": 6068,
      "Ġcountries": 6069,
      "Ġcollection": 6070,
      "email": 6071,
      "Ġcompany": 6072,
      "_,": 6073,
      "Ġpatient": 6074,
      "ĠState": 6075,
      "Ġbre": 6076,
      "vari": 6077,
      "Ġâ": 6078,
      ".Ch": 6079,
      "rl": 6080,
      "_factor": 6081,
      "Ġsets": 6082,
      "(app": 6083,
      "ĠNote": 6084,
      "Ġsoci": 6085,
      ".encode": 6086,
      "[@": 6087,
      "ograph": 6088,
      "tach": 6089,
      "Ġmatches": 6090,
      "tention": 6091,
      "Rep": 6092,
      "Ġsuff": 6093,
      "å§": 6094,
      "Ġessential": 6095,
      "greg": 6096,
      "çĲ": 6097,
      "ening": 6098,
      "aff": 6099,
      "bool": 6100,
      "ĠRE": 6101,
      "sence": 6102,
      "_method": 6103,
      "MS": 6104,
      "ëł": 6105,
      "match": 6106,
      "ike": 6107,
      "ĠTrans": 6108,
      "Ġsegment": 6109,
      "jection": 6110,
      "loud": 6111,
      "ĠWHERE": 6112,
      "ç»Ħ": 6113,
      "ALL": 6114,
      ".dir": 6115,
      "']čĊ": 6116,
      "Ġtemplate": 6117,
      "ĉwhile": 6118,
      "Ġsess": 6119,
      ".listdir": 6120,
      "vention": 6121,
      "Ġevidence": 6122,
      "Score": 6123,
      "ĠGener": 6124,
      ".ra": 6125,
      "iving": 6126,
      "Ġctx": 6127,
      "ĠMake": 6128,
      "Ġskin": 6129,
      ",m": 6130,
      "Ġtopic": 6131,
      "Ġdisc": 6132,
      "plication": 6133,
      "End": 6134,
      "ĊĠĠĠĠĠĠĠĠĠĠĠĠĊ": 6135,
      "_selection": 6136,
      "Ġ*=": 6137,
      "/t": 6138,
      ".session": 6139,
      "97": 6140,
      "ĠPrint": 6141,
      "UG": 6142,
      "]),Ċ": 6143,
      "Ġpers": 6144,
      "Ġprop": 6145,
      "ãĥ¼": 6146,
      "Position": 6147,
      "Ġmerge": 6148,
      "Ġestab": 6149,
      "}.": 6150,
      "_get": 6151,
      "Ã§Ã£o": 6152,
      "Ġcred": 6153,
      "Ġvocab": 6154,
      "enate": 6155,
      ".label": 6156,
      "Ġspeak": 6157,
      "IDTH": 6158,
      "Ġdeal": 6159,
      "_work": 6160,
      "aml": 6161,
      "CP": 6162,
      "AGE": 6163,
      ")])Ċ": 6164,
      "ĠGe": 6165,
      "Ġfontsize": 6166,
      "ĠImport": 6167,
      ".linspace": 6168,
      "âĶĢ": 6169,
      "_match": 6170,
      "åıĤ": 6171,
      "_msg": 6172,
      "Ġlaw": 6173,
      "_exp": 6174,
      "Ġmoves": 6175,
      "_init": 6176,
      "Ġfo": 6177,
      "============": 6178,
      "Ġphase": 6179,
      "Ġminutes": 6180,
      "Player": 6181,
      "(dist": 6182,
      "Ä±": 6183,
      "Ġpick": 6184,
      "_address": 6185,
      "ç¨ĭ": 6186,
      "åŀĭ": 6187,
      "Ġotherwise": 6188,
      "Ġbad": 6189,
      "lta": 6190,
      "icon": 6191,
      "lying": 6192,
      "dio": 6193,
      "Ġforms": 6194,
      "ulated": 6195,
      "Ġthought": 6196,
      "==\"": 6197,
      "chor": 6198,
      "lope": 6199,
      "_day": 6200,
      "onents": 6201,
      "Ġdecre": 6202,
      "Ġrespons": 6203,
      "ĠAtt": 6204,
      "=input": 6205,
      "lam": 6206,
      "Format": 6207,
      "(array": 6208,
      "part": 6209,
      "cos": 6210,
      "quared": 6211,
      "Ġsense": 6212,
      "Ġincreased": 6213,
      "GET": 6214,
      "illion": 6215,
      "åŃĹç¬¦": 6216,
      "Ġwomen": 6217,
      "ught": 6218,
      "><": 6219,
      "unct": 6220,
      "dr": 6221,
      "levant": 6222,
      "Graph": 6223,
      "Ġdefine": 6224,
      "->": 6225,
      "çł": 6226,
      "Ġ'--": 6227,
      "Ġnever": 6228,
      "ĠìĿ": 6229,
      "Ġadjust": 6230,
      "eed": 6231,
      "ASE": 6232,
      "Ġocc": 6233,
      "rary": 6234,
      "_norm": 6235,
      "Ġthreading": 6236,
      "volution": 6237,
      "Ġdirectly": 6238,
      "parent": 6239,
      "_doc": 6240,
      "script": 6241,
      "member": 6242,
      "dependent": 6243,
      ".select": 6244,
      "_act": 6245,
      "_RE": 6246,
      "gr": 6247,
      "itions": 6248,
      ".al": 6249,
      "Ġshare": 6250,
      "dates": 6251,
      "58": 6252,
      "ĠCar": 6253,
      "por": 6254,
      "Ġmar": 6255,
      "Ġmachine": 6256,
      "hicle": 6257,
      "Python": 6258,
      "Ġ{}ĊĊ": 6259,
      ")(": 6260,
      "Ġflask": 6261,
      "Ġmembers": 6262,
      "Ġincludes": 6263,
      "odo": 6264,
      "Ġna": 6265,
      "Ġpow": 6266,
      "/%": 6267,
      "Ġcounts": 6268,
      "missions": 6269,
      "selves": 6270,
      "Ġ[],": 6271,
      "Ġheat": 6272,
      ".message": 6273,
      "Ġselection": 6274,
      "Ġmessages": 6275,
      "Ġskip": 6276,
      "'}": 6277,
      "(E": 6278,
      "rown": 6279,
      "Ġonline": 6280,
      ".system": 6281,
      "uda": 6282,
      "ride": 6283,
      "Ġcancer": 6284,
      "Ġmind": 6285,
      "rum": 6286,
      "_request": 6287,
      "ĠâĢĶ": 6288,
      "_offset": 6289,
      "Ġsun": 6290,
      "ĠFirst": 6291,
      "OW": 6292,
      "Ġslow": 6293,
      "derr": 6294,
      "cap": 6295,
      "Ġbalance": 6296,
      "dients": 6297,
      "Ġregist": 6298,
      "Ġcreating": 6299,
      "(player": 6300,
      "âĢĻre": 6301,
      "arger": 6302,
      "ä½¿çĶ¨": 6303,
      "Trans": 6304,
      "Ġdemon": 6305,
      "Ġstatement": 6306,
      "Ġgene": 6307,
      "++++": 6308,
      "_command": 6309,
      "_epoch": 6310,
      "ancy": 6311,
      "(axis": 6312,
      "è®¡": 6313,
      "Ġmor": 6314,
      "cia": 6315,
      "ny": 6316,
      "View": 6317,
      "Ġrelease": 6318,
      "vey": 6319,
      "uto": 6320,
      ",v": 6321,
      "Process": 6322,
      "unch": 6323,
      "Ġdy": 6324,
      "IME": 6325,
      "ida": 6326,
      "Ġcollect": 6327,
      "_event": 6328,
      "*np": 6329,
      "Ġstored": 6330,
      "UI": 6331,
      "ategorical": 6332,
      "Ġdegree": 6333,
      "uler": 6334,
      ".\"\"\"ĊĊ": 6335,
      "Ġ_,": 6336,
      "session": 6337,
      "Ġcallback": 6338,
      "icial": 6339,
      "_fn": 6340,
      "actory": 6341,
      "eth": 6342,
      "åŃĲ": 6343,
      "Ġlinks": 6344,
      "learning": 6345,
      "Ġdefinition": 6346,
      "ftmax": 6347,
      "Ġ+Ċ": 6348,
      "Ġcanvas": 6349,
      "Ġproduce": 6350,
      "Width": 6351,
      "ĉg": 6352,
      "Ġfp": 6353,
      "Ġcapt": 6354,
      "[b": 6355,
      "_over": 6356,
      "Ġscience": 6357,
      "Ġ'{": 6358,
      "inner": 6359,
      "59": 6360,
      "Ġmer": 6361,
      "mul": 6362,
      "ç´ł": 6363,
      "EXT": 6364,
      "Ġmeet": 6365,
      "Request": 6366,
      ".put": 6367,
      "(pos": 6368,
      "(title": 6369,
      "Ġrequires": 6370,
      "Ġproced": 6371,
      "Ġpersonal": 6372,
      "Ã³n": 6373,
      "ĠAND": 6374,
      "æľ¬": 6375,
      "æ¬¡": 6376,
      "When": 6377,
      "ners": 6378,
      "Ġnx": 6379,
      "(unit": 6380,
      "ê°Ģ": 6381,
      "Ġplayers": 6382,
      "tainer": 6383,
      "fect": 6384,
      "Ġshows": 6385,
      "(query": 6386,
      "inct": 6387,
      "Ġmil": 6388,
      "__()Ċ": 6389,
      "orest": 6390,
      "Ġletters": 6391,
      "oph": 6392,
      ".âĢĿĊ": 6393,
      "Ġpixel": 6394,
      ".linalg": 6395,
      "bsite": 6396,
      "met": 6397,
      "ĠDefault": 6398,
      "utor": 6399,
      "Ġlonger": 6400,
      "Be": 6401,
      "tree": 6402,
      "Ġsetup": 6403,
      "_angle": 6404,
      "=b": 6405,
      "Ġcompare": 6406,
      "åı¯ä»¥": 6407,
      "Ġyo": 6408,
      "Ġmoney": 6409,
      "Ġrules": 6410,
      "Ġapplied": 6411,
      "Ġdx": 6412,
      "_ratio": 6413,
      "Ð¸Ð¼": 6414,
      "(Q": 6415,
      "_filter": 6416,
      "Ġcycle": 6417,
      "Ġshift": 6418,
      "ANT": 6419,
      "Ġtools": 6420,
      "ĠEnglish": 6421,
      "Ġnltk": 6422,
      ".inter": 6423,
      "udents": 6424,
      "Hello": 6425,
      "_client": 6426,
      "éĿ¢": 6427,
      "city": 6428,
      "pid": 6429,
      ",k": 6430,
      "Ġaltern": 6431,
      "ighest": 6432,
      "video": 6433,
      "Ġvi": 6434,
      "Ġappropriate": 6435,
      "TT": 6436,
      "_query": 6437,
      "estim": 6438,
      "Ġdeath": 6439,
      "Ġoptimizer": 6440,
      "ĠEurope": 6441,
      "Argument": 6442,
      "mask": 6443,
      "Ġbuilding": 6444,
      "Ġmiddle": 6445,
      "OST": 6446,
      "ij": 6447,
      "Ġprocessing": 6448,
      "å»": 6449,
      "Ġconse": 6450,
      "Ġpolit": 6451,
      "CD": 6452,
      "ĠĠĠĠĠĠĠĠĠĠĠĠĠĠĠĠĠĠĠĠĠĠĠĠĠĠĠĠĠĠĠĠĠĠĠĠĠĠĠĠĠĠĠ": 6453,
      "Ð½Ð¾": 6454,
      "Level": 6455,
      "make": 6456,
      ".Test": 6457,
      "Ġdeli": 6458,
      "connect": 6459,
      "197": 6460,
      "vertex": 6461,
      ".args": 6462,
      "types": 6463,
      "Ġnature": 6464,
      "Ġeval": 6465,
      ".target": 6466,
      "rig": 6467,
      ".abs": 6468,
      "Ġinfe": 6469,
      "_post": 6470,
      "ĠPe": 6471,
      "Ġeasy": 6472,
      "uples": 6473,
      "_read": 6474,
      "aches": 6475,
      "phabet": 6476,
      "ico": 6477,
      "Ġsubprocess": 6478,
      "BTN": 6479,
      "(Y": 6480,
      "\"]ĊĊ": 6481,
      "Ġpsy": 6482,
      ".back": 6483,
      "icture": 6484,
      "Ġpositions": 6485,
      "Ġgot": 6486,
      "lief": 6487,
      "cm": 6488,
      "Ġtags": 6489,
      "Ġtrig": 6490,
      "(raw": 6491,
      "Group": 6492,
      "_states": 6493,
      "views": 6494,
      "Ġincluded": 6495,
      "`Ċ": 6496,
      "Ġincreasing": 6497,
      "UB": 6498,
      "Ġblue": 6499,
      "cuit": 6500,
      "dings": 6501,
      "rior": 6502,
      "Ġespecially": 6503,
      "INE": 6504,
      "Ġphi": 6505,
      "ims": 6506,
      "'))ĊĊ": 6507,
      "Ġpredicted": 6508,
      "dro": 6509,
      "ìĬ": 6510,
      "argin": 6511,
      "Page": 6512,
      "arest": 6513,
      "_last": 6514,
      "ĠÑĩ": 6515,
      "Ġbul": 6516,
      "çłģ": 6517,
      "feature": 6518,
      "(grid": 6519,
      "ĠRandom": 6520,
      "ESS": 6521,
      "Ġcommunity": 6522,
      "Ġmedic": 6523,
      "posed": 6524,
      "_cell": 6525,
      "cion": 6526,
      "Ġthird": 6527,
      "æĸ°": 6528,
      "çĶŁ": 6529,
      "Ġconnected": 6530,
      "App": 6531,
      "Ġreally": 6532,
      "Ġindividuals": 6533,
      "IF": 6534,
      "Ġast": 6535,
      "_cols": 6536,
      "Ġsetting": 6537,
      "hello": 6538,
      "ysql": 6539,
      "encode": 6540,
      "Ġmeaning": 6541,
      "[f": 6542,
      "_header": 6543,
      "ufact": 6544,
      "ka": 6545,
      "_dis": 6546,
      "Ph": 6547,
      "Ġeye": 6548,
      "ando": 6549,
      "eng": 6550,
      "andidates": 6551,
      "ĠInte": 6552,
      "_edges": 6553,
      "ournal": 6554,
      "description": 6555,
      "ĠIndex": 6556,
      "reen": 6557,
      "Ġtheory": 6558,
      "Ġfocus": 6559,
      ".mo": 6560,
      "imp": 6561,
      "çĲĨ": 6562,
      "request": 6563,
      "Ġposs": 6564,
      "pass": 6565,
      "reshape": 6566,
      "CR": 6567,
      "product": 6568,
      ".dest": 6569,
      "holder": 6570,
      "ĠAb": 6571,
      "Ġdemonstr": 6572,
      "untime": 6573,
      "osen": 6574,
      ":\"": 6575,
      "Ġsat": 6576,
      "Ġtile": 6577,
      "igen": 6578,
      "Ġconduct": 6579,
      "Ġhyp": 6580,
      "_plot": 6581,
      "Ġlot": 6582,
      "67": 6583,
      "sect": 6584,
      "itter": 6585,
      "Ġhouse": 6586,
      ".format": 6587,
      "/{": 6588,
      "Ġpairs": 6589,
      "ERS": 6590,
      "YPE": 6591,
      "Ġenemy": 6592,
      "(None": 6593,
      "å§ĭ": 6594,
      ".post": 6595,
      "),čĊ": 6596,
      ".findall": 6597,
      "iver": 6598,
      "NE": 6599,
      "tocol": 6600,
      "ĠStates": 6601,
      "_ur": 6602,
      "ica": 6603,
      "Ġìł": 6604,
      "osed": 6605,
      "Ãº": 6606,
      "ferences": 6607,
      "İ·åıĸ": 6608,
      "-to": 6609,
      "Ġallowed": 6610,
      "Obj": 6611,
      "dest": 6612,
      "Ġguide": 6613,
      "Ġmarker": 6614,
      "ê¸°": 6615,
      "Ġannot": 6616,
      "ruit": 6617,
      "va": 6618,
      ".where": 6619,
      "_vec": 6620,
      "ongo": 6621,
      "(dataset": 6622,
      "AND": 6623,
      "Ġignore": 6624,
      "(sent": 6625,
      "Ġfund": 6626,
      "_password": 6627,
      "Ġtxt": 6628,
      "atches": 6629,
      ".render": 6630,
      "Ġitertools": 6631,
      "Ind": 6632,
      "Ġcm": 6633,
      "Ġ'#": 6634,
      "}')Ċ": 6635,
      "Ġtweet": 6636,
      ".clear": 6637,
      "Ġthing": 6638,
      "Returns": 6639,
      "_u": 6640,
      "_std": 6641,
      "Ġaspect": 6642,
      "/n": 6643,
      "oal": 6644,
      "std": 6645,
      "'))": 6646,
      ".item": 6647,
      "è·": 6648,
      "ãģ«": 6649,
      "Ġ\"--": 6650,
      "andard": 6651,
      "iques": 6652,
      "_depth": 6653,
      "otion": 6654,
      "assign": 6655,
      "-w": 6656,
      "ĉx": 6657,
      "Ġsaf": 6658,
      "Ġembed": 6659,
      ".map": 6660,
      "force": 6661,
      "ummy": 6662,
      "Ð¾ÑĤ": 6663,
      "Ġlogin": 6664,
      "Ġgas": 6665,
      "_speed": 6666,
      "Ġsex": 6667,
      "_back": 6668,
      "Ġpool": 6669,
      "orders": 6670,
      "ottom": 6671,
      "POST": 6672,
      "atings": 6673,
      "Ġcr": 6674,
      "Ġsound": 6675,
      ".client": 6676,
      "Ġeff": 6677,
      "atial": 6678,
      "():": 6679,
      "_record": 6680,
      "hex": 6681,
      "Ġevaluate": 6682,
      "èĥ½": 6683,
      "umb": 6684,
      "Ġrobot": 6685,
      "lon": 6686,
      "Ġpres": 6687,
      "Ġfreq": 6688,
      "éĶ": 6689,
      "arnings": 6690,
      "ä¾ĭ": 6691,
      "_not": 6692,
      "Ġprotein": 6693,
      "ĠTypeError": 6694,
      ".decode": 6695,
      "ults": 6696,
      "hesis": 6697,
      "(all": 6698,
      "CS": 6699,
      "_area": 6700,
      "ixt": 6701,
      "æĬ": 6702,
      "anner": 6703,
      "ĠEach": 6704,
      "Ġmedical": 6705,
      "accuracy": 6706,
      "artment": 6707,
      "Ġoutside": 6708,
      "vt": 6709,
      "Ġintrodu": 6710,
      "Ġfat": 6711,
      "Client": 6712,
      "èĢ": 6713,
      "Ġexc": 6714,
      "Implement": 6715,
      "Ġer": 6716,
      "ĠThat": 6717,
      "(config": 6718,
      ".imread": 6719,
      "ĠWorld": 6720,
      ".content": 6721,
      "Open": 6722,
      "Ġmeas": 6723,
      "Ġ:,": 6724,
      "rd": 6725,
      "å¦Ĥ": 6726,
      "}{": 6727,
      "Ġsoil": 6728,
      "Ġgamma": 6729,
      "high": 6730,
      "Ġpytest": 6731,
      "_queue": 6732,
      "ato": 6733,
      "_sort": 6734,
      "quee": 6735,
      "pher": 6736,
      "(dir": 6737,
      "cessed": 6738,
      "Dir": 6739,
      "vg": 6740,
      "ĠEarth": 6741,
      "Ġduration": 6742,
      "_return": 6743,
      "minist": 6744,
      "mode": 6745,
      "ĠUnited": 6746,
      "My": 6747,
      "ĠIS": 6748,
      "Ġoutcome": 6749,
      "Ġdynam": 6750,
      "ventory": 6751,
      "Ġsimply": 6752,
      "_bytes": 6753,
      "Ġsources": 6754,
      "Ġmole": 6755,
      "Ġattention": 6756,
      "Ġnb": 6757,
      "_port": 6758,
      "Ġtradition": 6759,
      ".out": 6760,
      "Ġreceived": 6761,
      "Ġupon": 6762,
      "ĠCur": 6763,
      ".reset": 6764,
      "Ġdimensions": 6765,
      "ronic": 6766,
      "Ġrec": 6767,
      "([\"": 6768,
      "æĸ¹æ³ķ": 6769,
      ".form": 6770,
      "Ł¥": 6771,
      "Ġprime": 6772,
      "Ġmedia": 6773,
      "##Ċ": 6774,
      "_handler": 6775,
      "_predict": 6776,
      "Ġmonths": 6777,
      "Ġgovernment": 6778,
      "Ġmovement": 6779,
      ",text": 6780,
      "ĠDict": 6781,
      "xi": 6782,
      "Ġwrong": 6783,
      "Ġidea": 6784,
      "âĢĶâĢĶâĢĶâĢĶ": 6785,
      "sa": 6786,
      "ĠHere": 6787,
      "110": 6788,
      "_LE": 6789,
      "dy": 6790,
      "Ġbelie": 6791,
      "apes": 6792,
      "Ġones": 6793,
      "Ġservices": 6794,
      "function": 6795,
      ")',": 6796,
      "ceed": 6797,
      "address": 6798,
      "[name": 6799,
      "hing": 6800,
      "ĠPoint": 6801,
      "_op": 6802,
      "Ġvs": 6803,
      "åıĺ": 6804,
      "ohn": 6805,
      "()):Ċ": 6806,
      "æł¼": 6807,
      "Ġreset": 6808,
      ".stdout": 6809,
      "lor": 6810,
      "_hash": 6811,
      "Ġdecision": 6812,
      "_ph": 6813,
      "Ġ\"_": 6814,
      "Ġinvestig": 6815,
      "Ġnut": 6816,
      "===": 6817,
      "Ġsafe": 6818,
      "straint": 6819,
      ".X": 6820,
      "Ġparents": 6821,
      "ining": 6822,
      "(total": 6823,
      ".th": 6824,
      "/m": 6825,
      "weights": 6826,
      "nections": 6827,
      "å»º": 6828,
      "ĠWork": 6829,
      "Ġreach": 6830,
      "è¯·": 6831,
      "_app": 6832,
      "_freq": 6833,
      "Ġtaking": 6834,
      "_root": 6835,
      "Ġdefaultdict": 6836,
      "Ġinner": 6837,
      "Ġplants": 6838,
      "Block": 6839,
      "Create": 6840,
      "_initial": 6841,
      "Ġfive": 6842,
      "Ġphone": 6843,
      "åıĤæķ°": 6844,
      "ducing": 6845,
      "Ġlive": 6846,
      "Ġball": 6847,
      "Ġchanged": 6848,
      "-e": 6849,
      "ĠDep": 6850,
      "mut": 6851,
      "ì§Ģ": 6852,
      "Ġbrowser": 6853,
      "(window": 6854,
      "ĠInter": 6855,
      "pping": 6856,
      "aises": 6857,
      "Ġhour": 6858,
      ".subplots": 6859,
      "Ġstrength": 6860,
      "ipher": 6861,
      "Ñī": 6862,
      "Ġaxes": 6863,
      "iki": 6864,
      "(round": 6865,
      "Left": 6866,
      "Ġmatter": 6867,
      "_grad": 6868,
      "(al": 6869,
      "Ġsep": 6870,
      "================================================================": 6871,
      "Ġbasis": 6872,
      "Ġstage": 6873,
      "ieces": 6874,
      "Ġdigits": 6875,
      "Ġpul": 6876,
      "ĠTrain": 6877,
      "ĠCount": 6878,
      "_acc": 6879,
      "Ð³": 6880,
      "Ġsyn": 6881,
      "ilters": 6882,
      "57": 6883,
      "rupt": 6884,
      ".url": 6885,
      "Ġcols": 6886,
      "Ġapprox": 6887,
      ".keras": 6888,
      "Ġrights": 6889,
      "_O": 6890,
      "á»": 6891,
      "68": 6892,
      "Ð¾Ð³": 6893,
      "vm": 6894,
      "inations": 6895,
      "urb": 6896,
      ")))": 6897,
      "è½¬": 6898,
      ".mark": 6899,
      "âĶĢâĶĢ": 6900,
      "illa": 6901,
      "ĠStart": 6902,
      "éģ": 6903,
      "conv": 6904,
      "Ġissue": 6905,
      "_ar": 6906,
      ".asarray": 6907,
      "Ġpaths": 6908,
      "]][": 6909,
      "ĠAfter": 6910,
      "Ġcarbon": 6911,
      "ĠIP": 6912,
      ".TestCase": 6913,
      "ĠĠčĊ": 6914,
      "Ġdouble": 6915,
      "decode": 6916,
      "è¿ĩ": 6917,
      "Ġfire": 6918,
      "Ġmoment": 6919,
      "512": 6920,
      "token": 6921,
      "Ġclassifier": 6922,
      "çĽ¸": 6923,
      "ius": 6924,
      "_month": 6925,
      "(tmp": 6926,
      "Title": 6927,
      "Found": 6928,
      "serve": 6929,
      "Ġcour": 6930,
      "(event": 6931,
      "Iter": 6932,
      "DD": 6933,
      "Ġturtle": 6934,
      "ULL": 6935,
      "Ġvalor": 6936,
      "idf": 6937,
      "rac": 6938,
      "_child": 6939,
      "Ġopportun": 6940,
      "reduce": 6941,
      "Ġbyte": 6942,
      "ERROR": 6943,
      "NG": 6944,
      "_down": 6945,
      "/or": 6946,
      "Ġsqlite": 6947,
      "otor": 6948,
      "Ġlarger": 6949,
      "stances": 6950,
      "_param": 6951,
      ".frame": 6952,
      "Ġcontents": 6953,
      "Status": 6954,
      "Ġelem": 6955,
      "('./": 6956,
      "vision": 6957,
      "lastic": 6958,
      "ĠInt": 6959,
      "/w": 6960,
      "oman": 6961,
      "NO": 6962,
      "limin": 6963,
      "_task": 6964,
      "[a": 6965,
      "enium": 6966,
      "Ġplat": 6967,
      "Ġtrace": 6968,
      "ĠLoad": 6969,
      "Ġgrade": 6970,
      "icky": 6971,
      "source": 6972,
      "ĠÎ": 6973,
      "Ġtasks": 6974,
      "Ġcompared": 6975,
      "relation": 6976,
      "Your": 6977,
      "help": 6978,
      "Ġspread": 6979,
      "_vis": 6980,
      "Ġdigit": 6981,
      "Ġsynt": 6982,
      "(W": 6983,
      "æĭ": 6984,
      "matrix": 6985,
      "Ġwind": 6986,
      "Ġ\")čĊ": 6987,
      "Ġanimals": 6988,
      "ĠStr": 6989,
      "ickness": 6990,
      "NAME": 6991,
      "Ġwor": 6992,
      "theta": 6993,
      "è´": 6994,
      "CL": 6995,
      "coming": 6996,
      "cost": 6997,
      "Values": 6998,
      "Ġmock": 6999,
      "=data": 7000,
      "ĠOpen": 7001,
      "(im": 7002,
      "_mark": 7003,
      "Ġacid": 7004,
      "Ġcauses": 7005,
      "Ġdjango": 7006,
      "////////": 7007,
      "_bound": 7008,
      "(unittest": 7009,
      "Part": 7010,
      "bt": 7011,
      "Ġsaved": 7012,
      "ä»£": 7013,
      "px": 7014,
      "rast": 7015,
      "structions": 7016,
      "ano": 7017,
      "hold": 7018,
      ")ĊĊĊĊ": 7019,
      "Ġinplace": 7020,
      "Ġanimal": 7021,
      "queeze": 7022,
      "reme": 7023,
      "Dis": 7024,
      "Ġvisit": 7025,
      "=float": 7026,
      "rive": 7027,
      "ĠFlask": 7028,
      "predict": 7029,
      "convert": 7030,
      "Dist": 7031,
      "Doc": 7032,
      "(words": 7033,
      "_layers": 7034,
      "_update": 7035,
      "Ġinvalid": 7036,
      "ĠError": 7037,
      "Ġíķ": 7038,
      "_tensor": 7039,
      "usic": 7040,
      "ASS": 7041,
      "cipe": 7042,
      "Pool": 7043,
      "Ġ),Ċ": 7044,
      "Ġhar": 7045,
      "ked": 7046,
      "ĠExt": 7047,
      "Ġgetting": 7048,
      "Exp": 7049,
      "åĨħ": 7050,
      "ë¦": 7051,
      "mplex": 7052,
      ".ge": 7053,
      "_axis": 7054,
      "_random": 7055,
      "Ġstride": 7056,
      "ball": 7057,
      "png": 7058,
      "Ġfn": 7059,
      "Ġhot": 7060,
      "-d": 7061,
      "master": 7062,
      "Ġupdated": 7063,
      "LL": 7064,
      "Ð¾Ðº": 7065,
      "Ð°ÑĤÑĮ": 7066,
      "seq": 7067,
      "Ġstory": 7068,
      "ientation": 7069,
      "(columns": 7070,
      "æı": 7071,
      "rer": 7072,
      "lio": 7073,
      "EST": 7074,
      "Ġdescribed": 7075,
      "uting": 7076,
      "_two": 7077,
      "=tf": 7078,
      ".)": 7079,
      "Ġmp": 7080,
      "rency": 7081,
      "=x": 7082,
      "_card": 7083,
      "ĠConvert": 7084,
      "Ġmember": 7085,
      "GG": 7086,
      "Ġfib": 7087,
      "asons": 7088,
      "cons": 7089,
      "Ġsummary": 7090,
      "ivot": 7091,
      "served": 7092,
      "rm": 7093,
      "sole": 7094,
      "ĠNow": 7095,
      "foo": 7096,
      "Ġstrategy": 7097,
      "Ġrepresentation": 7098,
      "Ġheap": 7099,
      "Act": 7100,
      "(matrix": 7101,
      "(loc": 7102,
      "tri": 7103,
      "ribe": 7104,
      "Ġremoved": 7105,
      "Ġconcent": 7106,
      "_pl": 7107,
      "cio": 7108,
      "Net": 7109,
      "(?": 7110,
      "Food": 7111,
      "iency": 7112,
      "grad": 7113,
      "stream": 7114,
      "Ġhit": 7115,
      "_NAME": 7116,
      "-g": 7117,
      "anning": 7118,
      "pla": 7119,
      "čĊĠĠĠĠčĊ": 7120,
      "(or": 7121,
      "52": 7122,
      "_paths": 7123,
      "zero": 7124,
      "(False": 7125,
      "Ġmouse": 7126,
      "Ġfailed": 7127,
      "isms": 7128,
      "verbose": 7129,
      "Content": 7130,
      "ìľ": 7131,
      "client": 7132,
      "month": 7133,
      "ëĵ": 7134,
      "æģ": 7135,
      "ĠMax": 7136,
      "])ĊĊĊ": 7137,
      "hem": 7138,
      "Ġfav": 7139,
      "æµĭ": 7140,
      "bi": 7141,
      "filter": 7142,
      "Ġinterpre": 7143,
      "Ġdoing": 7144,
      "Ut": 7145,
      "lso": 7146,
      "ĠExample": 7147,
      "[l": 7148,
      "Ġcamera": 7149,
      "Ġimplementation": 7150,
      "diff": 7151,
      "ously": 7152,
      ";ĊĊ": 7153,
      "]:čĊ": 7154,
      "auth": 7155,
      "Ġrotation": 7156,
      "%s": 7157,
      "æ±": 7158,
      "Ġclimate": 7159,
      "ĠÐ±": 7160,
      "Ġcomes": 7161,
      "ava": 7162,
      "Ġbuffer": 7163,
      "ĉplt": 7164,
      "Ġthus": 7165,
      "ĠMon": 7166,
      "_(": 7167,
      "Ġstim": 7168,
      "ĠĠĠĠĠĠĠĠĠĠĠĠĠĠĠĠĠĠĠĠĠĠĠĠĠĠĠĠĠĠĠĠĠĠ": 7169,
      "(base": 7170,
      "Ġmapping": 7171,
      "vere": 7172,
      "192": 7173,
      "ĠResearch": 7174,
      "allel": 7175,
      "å¿": 7176,
      "Ġclin": 7177,
      "(čĊ": 7178,
      "illed": 7179,
      "Response": 7180,
      "ustomer": 7181,
      "ĉĠĠĠ": 7182,
      "Ġcore": 7183,
      "(figsize": 7184,
      "Ġship": 7185,
      "olicy": 7186,
      ".q": 7187,
      "FS": 7188,
      "åı·": 7189,
      "PLE": 7190,
      "display": 7191,
      "_source": 7192,
      "agraph": 7193,
      "Ġauto": 7194,
      "ORM": 7195,
      ":'": 7196,
      "rees": 7197,
      "PR": 7198,
      ".nodes": 7199,
      "åĲĪ": 7200,
      "ura": 7201,
      "Ġdot": 7202,
      "_stats": 7203,
      "icker": 7204,
      "ancial": 7205,
      "(lst": 7206,
      "Ġsmaller": 7207,
      ".graph": 7208,
      "Ġ\"{": 7209,
      "=[\"": 7210,
      "Ġstation": 7211,
      "Ġchemical": 7212,
      "():ĊĊ": 7213,
      "save": 7214,
      "æĿ¥": 7215,
      "æ¨¡": 7216,
      "Ġconfiguration": 7217,
      "ky": 7218,
      "Ġprovid": 7219,
      "@@": 7220,
      "Ġrelevant": 7221,
      "available": 7222,
      "nb": 7223,
      "datetime": 7224,
      "event": 7225,
      "Ġshuffle": 7226,
      "zip": 7227,
      "ried": 7228,
      "_print": 7229,
      "_scale": 7230,
      "_like": 7231,
      ".transpose": 7232,
      "opyright": 7233,
      "zen": 7234,
      "nes": 7235,
      "dies": 7236,
      "Ġthemselves": 7237,
      ",BTN": 7238,
      "Ġtargets": 7239,
      "Char": 7240,
      ".view": 7241,
      "Med": 7242,
      ".driver": 7243,
      "Ġdegrees": 7244,
      "Ġcritical": 7245,
      "(H": 7246,
      "Ġpixels": 7247,
      "ĠRun": 7248,
      "Ġcommands": 7249,
      "(dict": 7250,
      "ii": 7251,
      "_PATH": 7252,
      ".Argument": 7253,
      "éĽĨ": 7254,
      "Ġdelimiter": 7255,
      "witch": 7256,
      "matic": 7257,
      "jects": 7258,
      "Ð½Ð°": 7259,
      "Ġsensor": 7260,
      "ĠSy": 7261,
      "tab": 7262,
      "vs": 7263,
      ".normal": 7264,
      "ĠEX": 7265,
      "INS": 7266,
      "_tra": 7267,
      "ridge": 7268,
      "*self": 7269,
      "Ġtell": 7270,
      "ĠĠĠĠĠĠĠĠĠĠĠĠĠĠĠĠĠĠĠĠĠĠĠĠĠĠĠĠĠĠĠĠĠ": 7271,
      "éĩį": 7272,
      "Ġtimestamp": 7273,
      "xml": 7274,
      "ĉĉĉĉĉĉ": 7275,
      ".sample": 7276,
      "53": 7277,
      "service": 7278,
      "-A": 7279,
      "Ġhelps": 7280,
      "Integer": 7281,
      "Âł": 7282,
      "(shape": 7283,
      "------": 7284,
      "(theta": 7285,
      "DA": 7286,
      "Â°": 7287,
      "Ġcover": 7288,
      "Ġcosts": 7289,
      "Ext": 7290,
      "linear": 7291,
      ".on": 7292,
      "dp": 7293,
      "éĺ": 7294,
      "irs": 7295,
      "Ġdesigned": 7296,
      "89": 7297,
      "istry": 7298,
      "Link": 7299,
      "Price": 7300,
      "imize": 7301,
      "{}\".": 7302,
      "Ġband": 7303,
      "versed": 7304,
      "mming": 7305,
      "ĠArg": 7306,
      "ĠIntern": 7307,
      "ĠUnion": 7308,
      ".Label": 7309,
      "Author": 7310,
      ".empty": 7311,
      "Ġdesired": 7312,
      "eb": 7313,
      "Ġoverall": 7314,
      "Ġpor": 7315,
      "Ġsong": 7316,
      "_columns": 7317,
      "best": 7318,
      "acion": 7319,
      "Ġbeh": 7320,
      "PA": 7321,
      "Ġcurrently": 7322,
      "ĠPlayer": 7323,
      "Ġweather": 7324,
      "Step": 7325,
      "_FILE": 7326,
      "_layout": 7327,
      "ĠAf": 7328,
      "Ġdevices": 7329,
      "TR": 7330,
      "ĠJSON": 7331,
      "æ¯ı": 7332,
      "Ġinterpol": 7333,
      "Ġbuy": 7334,
      "_limit": 7335,
      "Board": 7336,
      "Ġsin": 7337,
      "apply": 7338,
      ".parser": 7339,
      "igits": 7340,
      "Ġlargest": 7341,
      "/v": 7342,
      "è±": 7343,
      "counter": 7344,
      "child": 7345,
      "Ġthough": 7346,
      "card": 7347,
      "(math": 7348,
      "_default": 7349,
      "ä¿¡": 7350,
      "Ġ''.": 7351,
      "ãģĻ": 7352,
      "éľ": 7353,
      "ä¸²": 7354,
      "caler": 7355,
      ".Linear": 7356,
      "ios": 7357,
      "Ġeffic": 7358,
      "ĠEd": 7359,
      "Ġgradient": 7360,
      "51": 7361,
      "zed": 7362,
      "Ġcommit": 7363,
      "Off": 7364,
      "Ġoperations": 7365,
      "_raw": 7366,
      "unded": 7367,
      "[::-": 7368,
      "Ġclf": 7369,
      "ĠColumn": 7370,
      "(is": 7371,
      "Ġvalidate": 7372,
      "aj": 7373,
      "dx": 7374,
      "Ġ'<": 7375,
      "Ð»Ð¸": 7376,
      "inue": 7377,
      "Ġstorage": 7378,
      "Ġfixed": 7379,
      "ORD": 7380,
      "DP": 7381,
      "sort": 7382,
      "anging": 7383,
      ".Column": 7384,
      "Ġcards": 7385,
      "response": 7386,
      "fc": 7387,
      "ĠOther": 7388,
      "reet": 7389,
      "Ġtax": 7390,
      "\")[": 7391,
      "ìĭ": 7392,
      "elcome": 7393,
      "-Z": 7394,
      "å°Ĩ": 7395,
      "omain": 7396,
      "umption": 7397,
      "amily": 7398,
      "_ip": 7399,
      "osome": 7400,
      "Ġmetadata": 7401,
      "lush": 7402,
      "Source": 7403,
      "Ġ~": 7404,
      "Ġnothing": 7405,
      "Token": 7406,
      "Ġdivide": 7407,
      "Rect": 7408,
      "DOWN": 7409,
      "gle": 7410,
      "/data": 7411,
      "ailed": 7412,
      "ongs": 7413,
      "Ġgets": 7414,
      "numpy": 7415,
      "(lines": 7416,
      "Ġpackage": 7417,
      "qdm": 7418,
      "energy": 7419,
      "Ġeffort": 7420,
      ")==": 7421,
      "Ver": 7422,
      "conf": 7423,
      "Ġcentury": 7424,
      "Ġeasily": 7425,
      "Ġfg": 7426,
      ".has": 7427,
      "_conv": 7428,
      "ĠWrite": 7429,
      "Ġsix": 7430,
      "Ġmonitor": 7431,
      "SA": 7432,
      "Ġvertex": 7433,
      "example": 7434,
      "Ġappend": 7435,
      "Ġtherefore": 7436,
      "Height": 7437,
      "åĪĹè¡¨": 7438,
      "future": 7439,
      "Ġemer": 7440,
      "Ġrandint": 7441,
      "*x": 7442,
      "\"ĊĊĊ": 7443,
      "åħĥç´ł": 7444,
      "cells": 7445,
      "_flag": 7446,
      "ĠThen": 7447,
      "ÐºÐ°": 7448,
      "Ġnormalize": 7449,
      ".upper": 7450,
      "_avg": 7451,
      "eur": 7452,
      "Ġarc": 7453,
      "Ġcompet": 7454,
      "Implemented": 7455,
      "(left": 7456,
      "stac": 7457,
      "Ġcoordinate": 7458,
      "Ġsec": 7459,
      "ker": 7460,
      "åĻ": 7461,
      "Ġlin": 7462,
      "PP": 7463,
      "Ġbirth": 7464,
      "see": 7465,
      ".stdin": 7466,
      "sheet": 7467,
      "Ġtrip": 7468,
      "Ġsays": 7469,
      "Ġnull": 7470,
      "iling": 7471,
      "Ð°Ñģ": 7472,
      "_dims": 7473,
      "ĠKe": 7474,
      "Ð»Ñı": 7475,
      "anger": 7476,
      ".strftime": 7477,
      "Ġentity": 7478,
      "ĉy": 7479,
      "_conf": 7480,
      "Ġgenerator": 7481,
      "Ġobserved": 7482,
      "Ġmodern": 7483,
      "ĠSE": 7484,
      "_cal": 7485,
      "Ġbuilt": 7486,
      "oration": 7487,
      "ĠDate": 7488,
      "tails": 7489,
      "(csv": 7490,
      "Ġlr": 7491,
      ".nan": 7492,
      ".norm": 7493,
      "mitted": 7494,
      "tmp": 7495,
      "_empty": 7496,
      "Ġdepend": 7497,
      "Ġdensity": 7498,
      "_html": 7499,
      "how": 7500,
      ".speed": 7501,
      "Ġ%.": 7502,
      "Regression": 7503,
      "ĠQt": 7504,
      "Ġcmap": 7505,
      "ĠCalculate": 7506,
      "\"]:Ċ": 7507,
      "_dec": 7508,
      "å¼Ģ": 7509,
      "uzzle": 7510,
      "Ab": 7511,
      "ecause": 7512,
      ".children": 7513,
      "valuate": 7514,
      "Ġinstr": 7515,
      "Ġprofess": 7516,
      "ante": 7517,
      "Ġinc": 7518,
      "resses": 7519,
      "Ġswitch": 7520,
      ".ab": 7521,
      "ITE": 7522,
      "------------------------------------------------------------------------": 7523,
      "Ġmoving": 7524,
      "Ġinternal": 7525,
      "Range": 7526,
      "Ġretrie": 7527,
      "angles": 7528,
      "lements": 7529,
      ":],": 7530,
      "ãģĹ": 7531,
      "Ġaff": 7532,
      "Ġstress": 7533,
      "imation": 7534,
      "Ġpeak": 7535,
      "colors": 7536,
      "Ġpurpose": 7537,
      "fin": 7538,
      "tp": 7539,
      "lets": 7540,
      "_hidden": 7541,
      "chemy": 7542,
      "Ġhealthy": 7543,
      "...\")Ċ": 7544,
      "HA": 7545,
      "Ġenh": 7546,
      "First": 7547,
      "ken": 7548,
      "å½ĵ": 7549,
      "_bar": 7550,
      "Ġinitialize": 7551,
      "IX": 7552,
      "Ġxy": 7553,
      "Py": 7554,
      ".io": 7555,
      "ĠMar": 7556,
      "160": 7557,
      "Ġinstall": 7558,
      "Ġborder": 7559,
      "pet": 7560,
      "ĠWhile": 7561,
      "ira": 7562,
      ")\\": 7563,
      "ĠAN": 7564,
      "Ġevaluation": 7565,
      "[len": 7566,
      "Ġpublished": 7567,
      ".ArgumentParser": 7568,
      "ĠĠĠĠĠĠĠĠĠĠĠĠĠĠĠĠĠĠĠĠĠĠĠĠĠĠĠĠĠĠĠĠĠĠĠĠĠĠĠĠĠĠĠĠĠĠĠ": 7569,
      "headers": 7570,
      "PU": 7571,
      "(column": 7572,
      "ĠåĪ": 7573,
      "crete": 7574,
      "ĠĠĠĠĠĠĠĠĠĠĠĠčĊ": 7575,
      "lict": 7576,
      "'''čĊ": 7577,
      "ĠCO": 7578,
      "Ġroll": 7579,
      "Ġlibrary": 7580,
      "(game": 7581,
      "ĠPlot": 7582,
      "################################################": 7583,
      "ĠÃ©": 7584,
      "(\\": 7585,
      "ycle": 7586,
      "peat": 7587,
      "äºĮ": 7588,
      "stry": 7589,
      "Ġregard": 7590,
      "Ġblocks": 7591,
      "{'": 7592,
      "Ġstarts": 7593,
      ".metrics": 7594,
      "Ġcriteria": 7595,
      "(class": 7596,
      ".total": 7597,
      "ĠĠĠĠĠĠĠĠĠĠĠĠĠĠĠĠĠĠĠĠĠĠĠĠĠĠĠĠĠĠĠĠĠĠĠĠ": 7598,
      "celer": 7599,
      "âĢ¦": 7600,
      "ARD": 7601,
      "è±¡": 7602,
      "itable": 7603,
      "Ke": 7604,
      "ened": 7605,
      "_vals": 7606,
      "(values": 7607,
      "MM": 7608,
      "ulary": 7609,
      "Ġcustomer": 7610,
      "(mo": 7611,
      ".font": 7612,
      "ÐĴ": 7613,
      "_neg": 7614,
      "Ð¾Ð±": 7615,
      "{}'.": 7616,
      "Ġanything": 7617,
      "olean": 7618,
      "(next": 7619,
      "Ġ####": 7620,
      "issue": 7621,
      "(cl": 7622,
      "_final": 7623,
      ".step": 7624,
      "hash": 7625,
      "å¹¶": 7626,
      "pace": 7627,
      "(screen": 7628,
      "aster": 7629,
      "Font": 7630,
      "Ġplease": 7631,
      "entity": 7632,
      "(**": 7633,
      "ife": 7634,
      ".resize": 7635,
      "Move": 7636,
      "Ġann": 7637,
      ".Button": 7638,
      "Ġpartial": 7639,
      "Ġapplications": 7640,
      "look": 7641,
      "(source": 7642,
      "Dataset": 7643,
      "_lst": 7644,
      "ç©": 7645,
      "Ġfem": 7646,
      "training": 7647,
      ".dirname": 7648,
      "olver": 7649,
      "Ġmetric": 7650,
      "Ġsomeone": 7651,
      "(func": 7652,
      "cogn": 7653,
      "Ġclassification": 7654,
      "ĠCounter": 7655,
      "ĠRed": 7656,
      "127": 7657,
      "ports": 7658,
      "login": 7659,
      ".valid": 7660,
      "oke": 7661,
      "ĠPIL": 7662,
      "54": 7663,
      "acing": 7664,
      "SET": 7665,
      "Manager": 7666,
      "Ġdaily": 7667,
      "olog": 7668,
      "Ġtail": 7669,
      "Ġpatterns": 7670,
      "ÑģÑı": 7671,
      "Ġindent": 7672,
      "éľĢ": 7673,
      "Ġinstruction": 7674,
      "tage": 7675,
      "Ġcombination": 7676,
      "Ġvers": 7677,
      "ignore": 7678,
      "Ġeconomic": 7679,
      "orary": 7680,
      "chi": 7681,
      "Ġgives": 7682,
      ".play": 7683,
      "Ġles": 7684,
      "ĠPart": 7685,
      "EE": 7686,
      "Ġhab": 7687,
      "Ġexercise": 7688,
      "Ġperformed": 7689,
      "_stop": 7690,
      "Ġiteration": 7691,
      ".apply": 7692,
      "_ag": 7693,
      "Ġteacher": 7694,
      "ĠÐ½Ð°": 7695,
      "/c": 7696,
      "Ġteachers": 7697,
      "Ġexpress": 7698,
      "Ġsil": 7699,
      ":])Ċ": 7700,
      "Ġtechniques": 7701,
      "hot": 7702,
      "æīĢæľī": 7703,
      "åĻ¨": 7704,
      "],čĊ": 7705,
      "_context": 7706,
      "Ġmanage": 7707,
      "Ġfish": 7708,
      "tty": 7709,
      "ACE": 7710,
      ".button": 7711,
      "ĠConfig": 7712,
      "çĽ®": 7713,
      "ji": 7714,
      "send": 7715,
      "CV": 7716,
      "ama": 7717,
      "Ġentries": 7718,
      "ĠNotImplemented": 7719,
      "mu": 7720,
      "Ġ>>": 7721,
      "lication": 7722,
      "ĠWeb": 7723,
      "å®ŀ": 7724,
      ".astype": 7725,
      "dic": 7726,
      "Ġ]ĊĊ": 7727,
      "Ġcategories": 7728,
      "Ġkeyword": 7729,
      "Ġts": 7730,
      "ĠMay": 7731,
      "ITY": 7732,
      "Example": 7733,
      "(token": 7734,
      "Layer": 7735,
      "æģ¯": 7736,
      "isation": 7737,
      "lapsed": 7738,
      "Ġprecision": 7739,
      "Ġcapacity": 7740,
      "Ġreduced": 7741,
      ".argmax": 7742,
      "Ġmag": 7743,
      "Ġtimeout": 7744,
      "QU": 7745,
      "[start": 7746,
      "zer": 7747,
      "']=": 7748,
      "Ġliving": 7749,
      "Ġsentences": 7750,
      "_current": 7751,
      "(\",": 7752,
      "åĲ¦": 7753,
      "Ġreq": 7754,
      "ĠNational": 7755,
      "=y": 7756,
      "GPIO": 7757,
      "IA": 7758,
      "196": 7759,
      "Ġmanufact": 7760,
      "_coord": 7761,
      "Ġ'''ĊĊ": 7762,
      ".concatenate": 7763,
      "Ġhighest": 7764,
      "[ind": 7765,
      "Ġcandidate": 7766,
      "phone": 7767,
      "Ġequip": 7768,
      "Ġrecommend": 7769,
      "itution": 7770,
      "auto": 7771,
      "Ġachieve": 7772,
      "ley": 7773,
      "itles": 7774,
      "Ġbacter": 7775,
      "expected": 7776,
      ".stack": 7777,
      "Ġ'',": 7778,
      "Ġprofile": 7779,
      ".center": 7780,
      "days": 7781,
      "Ġregions": 7782,
      "digit": 7783,
      "_amount": 7784,
      "upp": 7785,
      "ĠMethod": 7786,
      "tector": 7787,
      "ĉexcept": 7788,
      "models": 7789,
      "Logger": 7790,
      "Ġreceive": 7791,
      ")')Ċ": 7792,
      "Ġbenefits": 7793,
      "/f": 7794,
      ".window": 7795,
      "_process": 7796,
      "\"])": 7797,
      "Ġisn": 7798,
      "Ġxml": 7799,
      "Ġdiet": 7800,
      ".writerow": 7801,
      "su": 7802,
      "rections": 7803,
      "pa": 7804,
      "pc": 7805,
      "neg": 7806,
      "/div": 7807,
      "isf": 7808,
      "Ġsl": 7809,
      ".event": 7810,
      "hemat": 7811,
      "ĠVAL": 7812,
      "Ġgr": 7813,
      "Ġconc": 7814,
      "ayload": 7815,
      "ission": 7816,
      ",r": 7817,
      "åįķ": 7818,
      "variable": 7819,
      "Ġintegers": 7820,
      "ĠUsing": 7821,
      "Ġselenium": 7822,
      "79": 7823,
      "BS": 7824,
      "Ġpopular": 7825,
      "ÑĨÐ¸": 7826,
      "ublish": 7827,
      ".make": 7828,
      ",h": 7829,
      "Ġgames": 7830,
      "sign": 7831,
      "å¤ļ": 7832,
      "uation": 7833,
      "ç¼": 7834,
      "Ġcrop": 7835,
      "Ġwall": 7836,
      "Ġcoe": 7837,
      "actual": 7838,
      "è¾ĵåĩº": 7839,
      "_cache": 7840,
      "conds": 7841,
      "Ġgenerally": 7842,
      "(first": 7843,
      "Ġteaching": 7844,
      "ĠTreeNode": 7845,
      "Ġdu": 7846,
      "Ġwhose": 7847,
      "_center": 7848,
      "Ġiterations": 7849,
      "Ġrepresents": 7850,
      "#čĊ": 7851,
      "Normal": 7852,
      "entials": 7853,
      ".destroy": 7854,
      "Layout": 7855,
      "æĽ": 7856,
      "viation": 7857,
      "gray": 7858,
      "72": 7859,
      "###Ċ": 7860,
      "osite": 7861,
      "align": 7862,
      "SQL": 7863,
      "endswith": 7864,
      "Ġpages": 7865,
      "Ġcaused": 7866,
      "'ll": 7867,
      "(nn": 7868,
      "GE": 7869,
      "Ġled": 7870,
      ".COLOR": 7871,
      "build": 7872,
      "Ġfinally": 7873,
      "å°±": 7874,
      "Ġremaining": 7875,
      "itory": 7876,
      "thread": 7877,
      ".uniform": 7878,
      "ìĦľ": 7879,
      "Att": 7880,
      "Ġduplic": 7881,
      "Ġcreates": 7882,
      "Ġpady": 7883,
      "è§£": 7884,
      "ç«": 7885,
      "quire": 7886,
      "Ġdifferences": 7887,
      "Ġsimulation": 7888,
      "Ġdry": 7889,
      "_stack": 7890,
      "Ġdestination": 7891,
      ".groupby": 7892,
      "Ġbeginning": 7893,
      "Right": 7894,
      "Ġresearchers": 7895,
      "_tokens": 7896,
      "ĠIM": 7897,
      "è®¾": 7898,
      "Ġtqdm": 7899,
      "Ġcook": 7900,
      "Ġculture": 7901,
      "BUG": 7902,
      ".ad": 7903,
      "_def": 7904,
      "(graph": 7905,
      "ixture": 7906,
      "oms": 7907,
      "æĢ§": 7908,
      "Ġchannels": 7909,
      "Ġphoto": 7910,
      ".click": 7911,
      "Red": 7912,
      "antity": 7913,
      ".relu": 7914,
      "Ġrepresenting": 7915,
      "Ĥ¬": 7916,
      "ĠPlease": 7917,
      "Ġcircle": 7918,
      "Print": 7919,
      "(by": 7920,
      ".row": 7921,
      "Ġwebsite": 7922,
      "_times": 7923,
      "_ref": 7924,
      "omy": 7925,
      "Ġfix": 7926,
      "_coords": 7927,
      "clus": 7928,
      "_product": 7929,
      "'ĊĊĊ": 7930,
      "èĩ": 7931,
      ".screen": 7932,
      "ĠMore": 7933,
      "Ġë°": 7934,
      "æį¢": 7935,
      "inger": 7936,
      "Ġinvolved": 7937,
      "(top": 7938,
      "_KEY": 7939,
      "cient": 7940,
      "Ġstatistics": 7941,
      "ĉn": 7942,
      "Ġexecute": 7943,
      "ciÃ³n": 7944,
      "Ġnd": 7945,
      "(\"[": 7946,
      "Ġmaster": 7947,
      "Ġnamed": 7948,
      "Ġ-->": 7949,
      ".table": 7950,
      "_directory": 7951,
      "oose": 7952,
      ".cor": 7953,
      "Ġpt": 7954,
      "ĠCON": 7955,
      "ĉtry": 7956,
      "_generator": 7957,
      "Ġhyper": 7958,
      "Load": 7959,
      "Ġcommunication": 7960,
      "logger": 7961,
      "Ġeverything": 7962,
      "sely": 7963,
      "cursor": 7964,
      "Ġlocations": 7965,
      "Ġreflect": 7966,
      "Ġcoord": 7967,
      "Ġcombined": 7968,
      "Ġss": 7969,
      "amage": 7970,
      "86": 7971,
      "Ġlooking": 7972,
      "ktop": 7973,
      ".ur": 7974,
      "ĠDr": 7975,
      "_option": 7976,
      "Ġexpand": 7977,
      "åĲĮ": 7978,
      "Ġideas": 7979,
      "Ġseparate": 7980,
      "Command": 7981,
      "Form": 7982,
      "ynomial": 7983,
      "ĊĊĊĊĊĊĊĊ": 7984,
      ")*(": 7985,
      "ĠGraph": 7986,
      "vertices": 7987,
      "pecific": 7988,
      "ological": 7989,
      "Ġbins": 7990,
      "lst": 7991,
      "Ġredirect": 7992,
      "[col": 7993,
      "awn": 7994,
      ".device": 7995,
      "></": 7996,
      "[df": 7997,
      "_DIR": 7998,
      "Ġproduced": 7999,
      "calcul": 8000,
      "Ġmount": 8001,
      "Ġblank": 8002,
      "=i": 8003,
      "SP": 8004,
      "***": 8005,
      "ĠMain": 8006,
      "ĠDataFrame": 8007,
      "localhost": 8008,
      "ä¼ļ": 8009,
      "!')Ċ": 8010,
      "Ġimportance": 8011,
      "Ġexpos": 8012,
      "loaded": 8013,
      ".node": 8014,
      "Ġresulting": 8015,
      "country": 8016,
      "rites": 8017,
      "Ġearth": 8018,
      "kip": 8019,
      "pd": 8020,
      "Select": 8021,
      "Ġ{},": 8022,
      "Ġlimited": 8023,
      "pm": 8024,
      "Ġbal": 8025,
      "-like": 8026,
      "raise": 8027,
      "ĠCor": 8028,
      "Ġdie": 8029,
      "Ġvariety": 8030,
      "nist": 8031,
      ".word": 8032,
      "Ġtransition": 8033,
      "(labels": 8034,
      "-n": 8035,
      "-re": 8036,
      "\"\"\"ĊĊĊ": 8037,
      "grams": 8038,
      "Ġhor": 8039,
      "Ġsolutions": 8040,
      "(content": 8041,
      "éĻ¤": 8042,
      ".weight": 8043,
      "ìĸ": 8044,
      "dian": 8045,
      "OLD": 8046,
      "kg": 8047,
      "ĉdata": 8048,
      "apon": 8049,
      "Ġsus": 8050,
      "Ġparticularly": 8051,
      "more": 8052,
      "ucket": 8053,
      "lopen": 8054,
      "endar": 8055,
      "ĠCode": 8056,
      "features": 8057,
      "=d": 8058,
      "Ġaudio": 8059,
      "ategy": 8060,
      "ĠAfric": 8061,
      "ĠLet": 8062,
      "Ġparsed": 8063,
      "Ġchoices": 8064,
      "(open": 8065,
      "Tensor": 8066,
      "_au": 8067,
      "ila": 8068,
      "INT": 8069,
      "Ġsometimes": 8070,
      "Ġodd": 8071,
      "ention": 8072,
      "Ġthroughout": 8073,
      "Ġepochs": 8074,
      "ìĬ¤": 8075,
      "=',": 8076,
      "udo": 8077,
      "-S": 8078,
      "Ġadding": 8079,
      "_ylabel": 8080,
      "Ġdistributed": 8081,
      "Ġyoung": 8082,
      "_select": 8083,
      "ÐµÐº": 8084,
      "Ġsuccessful": 8085,
      "Ġinj": 8086,
      "ĠIter": 8087,
      "articles": 8088,
      "allest": 8089,
      ".fetchall": 8090,
      "åºĶ": 8091,
      "Ġsafety": 8092,
      "_copy": 8093,
      "tual": 8094,
      "Ġchrom": 8095,
      "()]Ċ": 8096,
      "_alpha": 8097,
      ",a": 8098,
      "ians": 8099,
      "imately": 8100,
      "vider": 8101,
      "Ġnational": 8102,
      "è¿Ľè¡Į": 8103,
      "Ġteeth": 8104,
      "åĪĻ": 8105,
      "èĬ": 8106,
      "Distance": 8107,
      "}:": 8108,
      "Ġseason": 8109,
      "Ġ*ĊĊ": 8110,
      "Ġregister": 8111,
      "Ġextension": 8112,
      "_tr": 8113,
      "Ġstarted": 8114,
      "_prefix": 8115,
      "reh": 8116,
      "Ġuna": 8117,
      "åĲĳ": 8118,
      "Ġbooks": 8119,
      "initialize": 8120,
      "ban": 8121,
      "(zip": 8122,
      "Ġdent": 8123,
      "Cor": 8124,
      "Ġdst": 8125,
      "ĠAg": 8126,
      "ĠGu": 8127,
      "umul": 8128,
      ",w": 8129,
      "_screen": 8130,
      "ustain": 8131,
      "mediate": 8132,
      "Year": 8133,
      "Ġdeci": 8134,
      "Ġdistances": 8135,
      "irection": 8136,
      "cursive": 8137,
      "<<": 8138,
      "Over": 8139,
      "anies": 8140,
      ".net": 8141,
      "Ġframes": 8142,
      "Ġspecify": 8143,
      "BO": 8144,
      "Ġcolour": 8145,
      "Ġund": 8146,
      "_pool": 8147,
      "_numbers": 8148,
      "Ġoccurs": 8149,
      "Ġult": 8150,
      ".stop": 8151,
      ".batch": 8152,
      "Ġindependent": 8153,
      "Ġlinked": 8154,
      "_threshold": 8155,
      "_interval": 8156,
      "Ġfuel": 8157,
      "Ġros": 8158,
      "Ġemploy": 8159,
      "Ġtrees": 8160,
      "ĠOver": 8161,
      "aking": 8162,
      "190": 8163,
      "Ġalmost": 8164,
      "Ġfamili": 8165,
      "Ġdistrict": 8166,
      "Ġarrays": 8167,
      "Ġ-*-ĊĊ": 8168,
      "_elements": 8169,
      "Ġconstraint": 8170,
      "Action": 8171,
      "conn": 8172,
      "Ġ|Ċ": 8173,
      "Ġprograms": 8174,
      ".Conv": 8175,
      "mor": 8176,
      "Ġpin": 8177,
      "related": 8178,
      "Ġforest": 8179,
      "Property": 8180,
      "Ġcarry": 8181,
      "ME": 8182,
      ".cell": 8183,
      "Ġwalk": 8184,
      "ĠAlso": 8185,
      "week": 8186,
      "attrs": 8187,
      "Let": 8188,
      "ĠAp": 8189,
      "Ġqual": 8190,
      "=len": 8191,
      "UES": 8192,
      "...Ċ": 8193,
      "_history": 8194,
      "Ġvec": 8195,
      "Ge": 8196,
      "record": 8197,
      "Lab": 8198,
      "eral": 8199,
      "Ġever": 8200,
      "Ġstar": 8201,
      "(sql": 8202,
      ".String": 8203,
      "[[": 8204,
      "lers": 8205,
      "Ġdeveloping": 8206,
      "Ġorganization": 8207,
      "lihood": 8208,
      "ĠProcess": 8209,
      ".token": 8210,
      "Ġmodified": 8211,
      "ptime": 8212,
      "Ġ=>": 8213,
      ".recv": 8214,
      "Ġvelocity": 8215,
      "Ġsupported": 8216,
      "Ġrates": 8217,
      "tract": 8218,
      "bold": 8219,
      "final": 8220,
      "aurant": 8221,
      "Grid": 8222,
      "vies": 8223,
      "]),čĊ": 8224,
      "Ġepsilon": 8225,
      ".per": 8226,
      "ĠÑĦ": 8227,
      "/Ċ": 8228,
      "ĠĠĠĠĠĠĠĠĊĊ": 8229,
      "Ġspaces": 8230,
      "è®¡ç®Ĺ": 8231,
      "Ġtend": 8232,
      "dia": 8233,
      "å¾Ĺ": 8234,
      "Ð°Ð½Ð¸": 8235,
      "pective": 8236,
      "Ġmodify": 8237,
      ".\")ĊĊ": 8238,
      "Ġequi": 8239,
      "take": 8240,
      "ĠGoogle": 8241,
      "Dec": 8242,
      "Order": 8243,
      "Ġcurve": 8244,
      "])):Ċ": 8245,
      "Some": 8246,
      "Ġfall": 8247,
      "Ġoffer": 8248,
      "ĠUpdate": 8249,
      "(doc": 8250,
      "Ġlinewidth": 8251,
      "anguages": 8252,
      "Ġbecomes": 8253,
      "Gener": 8254,
      "Ġeat": 8255,
      "(width": 8256,
      "ĠÑĢ": 8257,
      "Ġgender": 8258,
      "/pro": 8259,
      "Back": 8260,
      "Ġ'*": 8261,
      "(torch": 8262,
      "(iter": 8263,
      "FP": 8264,
      "dot": 8265,
      "Ġdelay": 8266,
      "Ġlock": 8267,
      "Ġassume": 8268,
      "Ġcalls": 8269,
      "_period": 8270,
      "æŃ£": 8271,
      "atically": 8272,
      "kt": 8273,
      "Ġneural": 8274,
      "Ġreve": 8275,
      "calar": 8276,
      "Ġpolitical": 8277,
      "RAY": 8278,
      "Ġmotor": 8279,
      "_thread": 8280,
      ")#": 8281,
      "Ġtip": 8282,
      "(other": 8283,
      "OUR": 8284,
      "HEIGHT": 8285,
      "href": 8286,
      ".Module": 8287,
      "ĠHealth": 8288,
      "Ġauthors": 8289,
      "Ð¾Ð¹": 8290,
      "=list": 8291,
      "Reader": 8292,
      "null": 8293,
      "Ð¶": 8294,
      "éķ": 8295,
      "leted": 8296,
      "ĠBrit": 8297,
      "Ġdigital": 8298,
      "åŃĹç¬¦ä¸²": 8299,
      "(color": 8300,
      "exit": 8301,
      "_actions": 8302,
      "ç©º": 8303,
      "pytest": 8304,
      "LP": 8305,
      "Mode": 8306,
      "[word": 8307,
      "Ġanswers": 8308,
      "Ġgoes": 8309,
      "}}": 8310,
      "ĠScience": 8311,
      "Ġabsolute": 8312,
      "Ġfold": 8313,
      "scale": 8314,
      "distance": 8315,
      "Ġinvol": 8316,
      "ĠPl": 8317,
      ".dis": 8318,
      "folio": 8319,
      "Ġdiagn": 8320,
      "category": 8321,
      "ĠFrom": 8322,
      "Ġsuccessfully": 8323,
      ".length": 8324,
      "Ġcapital": 8325,
      "OG": 8326,
      "Words": 8327,
      "Ġgetattr": 8328,
      "_choice": 8329,
      "ceptions": 8330,
      "Ġpush": 8331,
      "(char": 8332,
      "åĬ¨": 8333,
      "Rate": 8334,
      "Ġ],Ċ": 8335,
      "isions": 8336,
      "Ġaccur": 8337,
      "Ġtransport": 8338,
      "BL": 8339,
      "screen": 8340,
      "stants": 8341,
      "Ġhasattr": 8342,
      "ultiple": 8343,
      "(tree": 8344,
      ".bar": 8345,
      "_datetime": 8346,
      "Ġmatching": 8347,
      "ido": 8348,
      "etween": 8349,
      "logging": 8350,
      "(results": 8351,
      "-se": 8352,
      "Ġele": 8353,
      "Ġdatasets": 8354,
      "[v": 8355,
      "(comp": 8356,
      "mos": 8357,
      "quares": 8358,
      "house": 8359,
      "_full": 8360,
      ".)Ċ": 8361,
      "lider": 8362,
      "Ġneighbor": 8363,
      "amm": 8364,
      ".img": 8365,
      "Ġbbox": 8366,
      "which": 8367,
      "Ġima": 8368,
      "Ġbank": 8369,
      "pad": 8370,
      "extract": 8371,
      "_xpath": 8372,
      "Ġdrink": 8373,
      "_%": 8374,
      "Ġnucle": 8375,
      "Ġenc": 8376,
      "eno": 8377,
      "æĹ¥": 8378,
      "åĨĻ": 8379,
      "Ġfoot": 8380,
      "_parameters": 8381,
      "Ġfriend": 8382,
      "Day": 8383,
      "insert": 8384,
      "lux": 8385,
      "Ġdivision": 8386,
      "Ġrepla": 8387,
      "ceived": 8388,
      ".seed": 8389,
      "FAULT": 8390,
      "pop": 8391,
      "anel": 8392,
      ".forward": 8393,
      "tra": 8394,
      ".uint": 8395,
      ":/": 8396,
      "Ġefficient": 8397,
      ".reader": 8398,
      "ĠSystem": 8399,
      "ĠBuild": 8400,
      "erg": 8401,
      "Ġsequences": 8402,
      "Ġclusters": 8403,
      "Ð°Ðº": 8404,
      "æĪ·": 8405,
      "ience": 8406,
      "Ġke": 8407,
      ".cvt": 8408,
      "NS": 8409,
      "ĠAuthor": 8410,
      "uestion": 8411,
      "çİ°": 8412,
      "Ġbel": 8413,
      "íķľ": 8414,
      "Ġanti": 8415,
      "_tuple": 8416,
      "Ġpayload": 8417,
      "Ġcontainer": 8418,
      "ëł¥": 8419,
      ".cvtColor": 8420,
      "_report": 8421,
      "[node": 8422,
      "Ġnumero": 8423,
      "Ġquit": 8424,
      "Ġaux": 8425,
      "Ġ\"<": 8426,
      "Oper": 8427,
      "dl": 8428,
      "uss": 8429,
      "_dic": 8430,
      "Ġjsonify": 8431,
      "-term": 8432,
      "Ġlack": 8433,
      "Ġusage": 8434,
      "Ġrefer": 8435,
      "ĠGiven": 8436,
      "Ġfully": 8437,
      "hol": 8438,
      "ĉĉĉĉĉĉĉĉ": 8439,
      "Ġcalculated": 8440,
      "(end": 8441,
      "åĳ": 8442,
      "Ġpdf": 8443,
      "Ġhumans": 8444,
      "(sorted": 8445,
      "columns": 8446,
      "fort": 8447,
      "Ġsig": 8448,
      "ĠNorth": 8449,
      "ĠDB": 8450,
      ".feature": 8451,
      "_variable": 8452,
      "éĥ": 8453,
      "olygon": 8454,
      "Ð¾Ð½": 8455,
      "Arr": 8456,
      "Ġscope": 8457,
      "Ġinstances": 8458,
      "Ġpercentage": 8459,
      "RGB": 8460,
      "Ġtransfer": 8461,
      "ĠSelect": 8462,
      "bre": 8463,
      "Ġtowards": 8464,
      "Ġ{:": 8465,
      "[['": 8466,
      "gamma": 8467,
      "ĠĠĠĠĠĠĠĠĠĠĠĠĠĠĠĠĠĠĠĠĠĠĠĠĠĠĠĠĠĠĠĠĠĠĠĠĠ": 8468,
      "ĠChar": 8469,
      "Cal": 8470,
      ".first": 8471,
      "):čĊčĊ": 8472,
      "ĠĠĠĠĠĠĊ": 8473,
      "ogen": 8474,
      "_instance": 8475,
      "grade": 8476,
      "Ġprobably": 8477,
      "Ġintegr": 8478,
      "700": 8479,
      "ĠTable": 8480,
      "iments": 8481,
      "Ġfra": 8482,
      "(table": 8483,
      ")/(": 8484,
      "Top": 8485,
      "Tag": 8486,
      "options": 8487,
      "([Ċ": 8488,
      "-a": 8489,
      "103": 8490,
      "Ġwebdriver": 8491,
      "OC": 8492,
      "unique": 8493,
      "Ġchosen": 8494,
      "Ġemot": 8495,
      "Ġrelig": 8496,
      "Ġids": 8497,
      "Car": 8498,
      "Ġdecimal": 8499,
      "_im": 8500,
      "Ġ'{}": 8501,
      "ĠEmp": 8502,
      "lsx": 8503,
      "urch": 8504,
      "_cnt": 8505,
      "Ġintel": 8506,
      "è¯ķ": 8507,
      "ĠINTO": 8508,
      "éĢļ": 8509,
      "ĠKeyError": 8510,
      "anh": 8511,
      "Ġnor": 8512,
      "zing": 8513,
      "Points": 8514,
      "raight": 8515,
      "Ġscra": 8516,
      "Down": 8517,
      "å¯¹è±¡": 8518,
      "ĠId": 8519,
      "prob": 8520,
      "Ġscientific": 8521,
      "SD": 8522,
      "Ġvacc": 8523,
      "_cent": 8524,
      "Ġprefer": 8525,
      "STM": 8526,
      "`,": 8527,
      "bra": 8528,
      "125": 8529,
      "ë©": 8530,
      "Ġenvironmental": 8531,
      "Ġhydro": 8532,
      "Ġtrade": 8533,
      ",[": 8534,
      "Ġsqrt": 8535,
      "_rel": 8536,
      "nov": 8537,
      ")],": 8538,
      ".endswith": 8539,
      "desc": 8540,
      "_pair": 8541,
      "ĠDNA": 8542,
      "Ġvectors": 8543,
      "ĠObject": 8544,
      "_rank": 8545,
      "enced": 8546,
      "Ġeyes": 8547,
      "RED": 8548,
      "Ġten": 8549,
      "_form": 8550,
      "ONE": 8551,
      "ARY": 8552,
      "BC": 8553,
      "ĉm": 8554,
      "edia": 8555,
      "Ġgran": 8556,
      "Ġvit": 8557,
      "_hist": 8558,
      "AV": 8559,
      "_options": 8560,
      "69": 8561,
      "uns": 8562,
      "Ġpadx": 8563,
      "ìŀĲ": 8564,
      "Queue": 8565,
      "Ġ---": 8566,
      "Ġboxes": 8567,
      "ĠNotImplementedError": 8568,
      "Ġrequirements": 8569,
      "åĥ": 8570,
      "Ġobservation": 8571,
      "ìķ": 8572,
      "_lat": 8573,
      "Change": 8574,
      "LS": 8575,
      "Match": 8576,
      "symbol": 8577,
      "!!!!": 8578,
      "Entry": 8579,
      "lf": 8580,
      "Initial": 8581,
      "Ġplaces": 8582,
      "Ġsociety": 8583,
      "crimin": 8584,
      "Ġ^": 8585,
      "Ġwx": 8586,
      "({\"": 8587,
      "Ġleading": 8588,
      "ee": 8589,
      "_case": 8590,
      "Sort": 8591,
      "Ġio": 8592,
      ":i": 8593,
      "NT": 8594,
      "ĠTech": 8595,
      "ë³": 8596,
      "Ġnews": 8597,
      "ship": 8598,
      "Ġ'''čĊ": 8599,
      "ima": 8600,
      "ĠShe": 8601,
      "tags": 8602,
      "_cards": 8603,
      "ields": 8604,
      "_version": 8605,
      "_hand": 8606,
      ".an": 8607,
      "84": 8608,
      "ris": 8609,
      "ãģĦ": 8610,
      "éľĢè¦ģ": 8611,
      "_network": 8612,
      "ĠOur": 8613,
      "Ġds": 8614,
      "_best": 8615,
      "çīĩ": 8616,
      "Ġms": 8617,
      "ups": 8618,
      "caled": 8619,
      "Ġdiscuss": 8620,
      "(error": 8621,
      "zone": 8622,
      "èµ": 8623,
      "riz": 8624,
      "_users": 8625,
      "éĥ¨": 8626,
      "å¤Ħ": 8627,
      ")>": 8628,
      "valent": 8629,
      "Ġtypically": 8630,
      "Ġstrategies": 8631,
      "Ľå»º": 8632,
      "lags": 8633,
      "Ġsecurity": 8634,
      "ãģ§": 8635,
      "_parser": 8636,
      "Ġclock": 8637,
      "ç»ĵæŀľ": 8638,
      "'m": 8639,
      "means": 8640,
      "Ġsea": 8641,
      "curr": 8642,
      "stitute": 8643,
      "Area": 8644,
      "eds": 8645,
      "Ġcentral": 8646,
      "Ġconcern": 8647,
      "\"))": 8648,
      "Ġcas": 8649,
      "_menu": 8650,
      ".number": 8651,
      "Ġhighly": 8652,
      "idade": 8653,
      "Ġroute": 8654,
      "Ġequation": 8655,
      "Ġdeque": 8656,
      "Ġcolon": 8657,
      "idity": 8658,
      "attle": 8659,
      "ä¿¡æģ¯": 8660,
      "yy": 8661,
      "Ġextreme": 8662,
      ".sprite": 8663,
      "eq": 8664,
      "true": 8665,
      "Ġlayout": 8666,
      "Names": 8667,
      "Ġtalk": 8668,
      "Ġconver": 8669,
      "_com": 8670,
      "Ġshutil": 8671,
      "Ġrospy": 8672,
      "pred": 8673,
      "centage": 8674,
      "æĮĩ": 8675,
      "_open": 8676,
      "Ġindustry": 8677,
      "sequ": 8678,
      "Ġ\")": 8679,
      "Ġgrad": 8680,
      "nums": 8681,
      "Ġdrug": 8682,
      "ĠTuple": 8683,
      "ĠHel": 8684,
      "ĠÑģÑĤ": 8685,
      "Ang": 8686,
      "cf": 8687,
      "ĠHigh": 8688,
      ".logger": 8689,
      "æĹ¶éĹ´": 8690,
      "same": 8691,
      "(Base": 8692,
      "ĠGroup": 8693,
      "Windows": 8694,
      "])čĊčĊ": 8695,
      "Ġresolution": 8696,
      "_bin": 8697,
      "gorithms": 8698,
      "\\'": 8699,
      "Ġsecret": 8700,
      "Ġacade": 8701,
      "Ġ</": 8702,
      "Ġbroad": 8703,
      "Ġprices": 8704,
      "uous": 8705,
      "Ġtherapy": 8706,
      "rols": 8707,
      "Ġwarm": 8708,
      "(pred": 8709,
      "(K": 8710,
      "Ġpicture": 8711,
      "Ġdead": 8712,
      "kdir": 8713,
      "??": 8714,
      "ĠNum": 8715,
      "Ġgeneration": 8716,
      "ctx": 8717,
      ".ph": 8718,
      "è¨": 8719,
      "Ġhref": 8720,
      "Ġruns": 8721,
      "Ġefficiency": 8722,
      "Ġ)čĊ": 8723,
      "Ġdetection": 8724,
      ".matmul": 8725,
      ",%": 8726,
      "Ent": 8727,
      "ĠÑĥ": 8728,
      "remove": 8729,
      "Ġneur": 8730,
      "(year": 8731,
      "Ġsmooth": 8732,
      "\"%": 8733,
      "Ġstructures": 8734,
      "Ġ\"#": 8735,
      "xticks": 8736,
      "Location": 8737,
      "èĬĤ": 8738,
      "_DE": 8739,
      "Ġencour": 8740,
      ".default": 8741,
      "real": 8742,
      "izations": 8743,
      "fficients": 8744,
      "\"))ĊĊ": 8745,
      "Ġdates": 8746,
      ".params": 8747,
      ".Model": 8748,
      "gu": 8749,
      "eric": 8750,
      "Ð°ÑĢ": 8751,
      "Ġidentified": 8752,
      "ä¹ī": 8753,
      "-B": 8754,
      "Ġtables": 8755,
      "Ġvertical": 8756,
      ".environ": 8757,
      "ains": 8758,
      "Ġaware": 8759,
      ".reduce": 8760,
      "Dig": 8761,
      "task": 8762,
      "åħ³": 8763,
      "tot": 8764,
      "Ġmm": 8765,
      "_sequence": 8766,
      "ĠExp": 8767,
      "Ġcreation": 8768,
      "ĠTk": 8769,
      "ĠMark": 8770,
      "lored": 8771,
      ".stderr": 8772,
      "Ġmodules": 8773,
      "Dep": 8774,
      "Ġloaded": 8775,
      "(batch": 8776,
      "tation": 8777,
      "patch": 8778,
      "Ġobtained": 8779,
      "63": 8780,
      "(V": 8781,
      "°ĥ": 8782,
      "Īëĭ¤": 8783,
      "ä¿Ŀ": 8784,
      "github": 8785,
      "Ġcompleted": 8786,
      "kedirs": 8787,
      "Ġfraction": 8788,
      "Ġseek": 8789,
      "allow": 8790,
      "Ġscen": 8791,
      "Ġshell": 8792,
      "ĠìĿ´": 8793,
      "Ġbits": 8794,
      "Ġmillion": 8795,
      "ĠSouth": 8796,
      "tyle": 8797,
      "Ġdisk": 8798,
      ",column": 8799,
      "hist": 8800,
      "Ġcoords": 8801,
      ".class": 8802,
      "ĠChrist": 8803,
      "Ġexactly": 8804,
      "ĉd": 8805,
      "anta": 8806,
      "anded": 8807,
      "oe": 8808,
      "inding": 8809,
      "Ġls": 8810,
      "ĠFOR": 8811,
      "chedule": 8812,
      "Ġseems": 8813,
      "\"\"\"\"": 8814,
      "Ð¾Ð»ÑĮ": 8815,
      "Mark": 8816,
      "ĠSchool": 8817,
      "Ġprocessed": 8818,
      "ĠWord": 8819,
      "{Ċ": 8820,
      "ingu": 8821,
      "(inputs": 8822,
      "ITH": 8823,
      "å¥": 8824,
      "irmed": 8825,
      "timestamp": 8826,
      "_moves": 8827,
      "Ġeth": 8828,
      "Ġhandler": 8829,
      "Ġinfluence": 8830,
      "$$": 8831,
      "ĠDefine": 8832,
      "iny": 8833,
      "pecies": 8834,
      "Ġrock": 8835,
      "Ġfinancial": 8836,
      "(ro": 8837,
      "_variables": 8838,
      "Ġelectric": 8839,
      "æ±Ĥ": 8840,
      "BER": 8841,
      "ĠImp": 8842,
      "nsor": 8843,
      "Ġjoint": 8844,
      "(src": 8845,
      "_unit": 8846,
      "(ind": 8847,
      "jpg": 8848,
      "ĠTra": 8849,
      "HTTP": 8850,
      "çº¿": 8851,
      "Ġdfs": 8852,
      "87": 8853,
      "Ġpp": 8854,
      "oting": 8855,
      "Ġasync": 8856,
      "ĠPerson": 8857,
      "Ġ/=": 8858,
      "ads": 8859,
      "Ġweak": 8860,
      "INSERT": 8861,
      "_err": 8862,
      "ums": 8863,
      "ĠLinear": 8864,
      "\"}": 8865,
      "Ġleaf": 8866,
      "ĠWar": 8867,
      "crypted": 8868,
      "Last": 8869,
      "_sim": 8870,
      "web": 8871,
      "shift": 8872,
      "(point": 8873,
      "Ġba": 8874,
      "Ġnotes": 8875,
      "Ġfilters": 8876,
      "abetes": 8877,
      "Ġly": 8878,
      "ivative": 8879,
      "rowth": 8880,
      "Ġprivate": 8881,
      "Ġps": 8882,
      "Encoder": 8883,
      "Ġtruth": 8884,
      "Ġ\"\",": 8885,
      "_tags": 8886,
      "ĉbreak": 8887,
      ".linear": 8888,
      "ĠWest": 8889,
      "cls": 8890,
      "ĉĉĉĊ": 8891,
      "Ġmob": 8892,
      ".Series": 8893,
      "(length": 8894,
      "lision": 8895,
      "æ¸": 8896,
      "ĠTemp": 8897,
      "Ġseri": 8898,
      ".function": 8899,
      "Ġcomparison": 8900,
      "Ġdemo": 8901,
      "ĠĠĠĠĠĊ": 8902,
      "ĠSave": 8903,
      "ĠAR": 8904,
      ".socket": 8905,
      "Ġparticles": 8906,
      "æĪĳ": 8907,
      "_.": 8908,
      "periment": 8909,
      "faces": 8910,
      "ien": 8911,
      "VER": 8912,
      "_pattern": 8913,
      "returns": 8914,
      "(per": 8915,
      "Ġoutfile": 8916,
      "Connection": 8917,
      "full": 8918,
      ".Set": 8919,
      "ìĸ´": 8920,
      "Method": 8921,
      "ĠSQL": 8922,
      "åıĳ": 8923,
      "Ġexplain": 8924,
      "_units": 8925,
      "Ġsituation": 8926,
      "mits": 8927,
      "olic": 8928,
      "_body": 8929,
      ".canvas": 8930,
      "Ġmeasurement": 8931,
      "[e": 8932,
      "ulo": 8933,
      "_zero": 8934,
      "Ġproviding": 8935,
      "'}Ċ": 8936,
      "Ġquickly": 8937,
      "ĠMatrix": 8938,
      "Port": 8939,
      "epcopy": 8940,
      "ä¸¤": 8941,
      "_series": 8942,
      "éĢī": 8943,
      "mun": 8944,
      "ĠĠĠĠĠĠĠĠĠĠĠĠĠĠĠĠĠĠĠĠĊ": 8945,
      "_prime": 8946,
      "'))čĊ": 8947,
      "epsilon": 8948,
      "Ġĉ": 8949,
      "Params": 8950,
      "oral": 8951,
      "ito": 8952,
      "åģ": 8953,
      "-i": 8954,
      ".IN": 8955,
      "eger": 8956,
      "éļ": 8957,
      "Ġpg": 8958,
      "illi": 8959,
      "izers": 8960,
      "iring": 8961,
      "_buffer": 8962,
      "-v": 8963,
      "PC": 8964,
      "hat": 8965,
      "ilit": 8966,
      "Ġow": 8967,
      "Ġprep": 8968,
      "Ġdog": 8969,
      "62": 8970,
      "Raises": 8971,
      "cture": 8972,
      "Ġlives": 8973,
      "_xlabel": 8974,
      "å½ķ": 8975,
      "WS": 8976,
      "æŁ¥": 8977,
      "only": 8978,
      "Ġdro": 8979,
      "Ġevolution": 8980,
      "Ġclosed": 8981,
      "(\"{}": 8982,
      "ĠĠĠĠĠĠĠĠĠĠĠĠĠĠĠĠĠĠĠĠĠĠĠĠĠĠĠĠĠĠĠĠĠĠĠĠĠĠ": 8983,
      ".bind": 8984,
      "ued": 8985,
      "Ġ'))Ċ": 8986,
      "users": 8987,
      "ugment": 8988,
      "_fields": 8989,
      "Ġcra": 8990,
      "bottom": 8991,
      "drop": 8992,
      "ĉi": 8993,
      "Ġshared": 8994,
      "Column": 8995,
      "Ð¸Ð½": 8996,
      "Ġphot": 8997,
      "Ġverify": 8998,
      "ĠCompute": 8999,
      "/test": 9000,
      ":')Ċ": 9001,
      "Ġ--------------------------------": 9002,
      "Ġcloud": 9003,
      "(command": 9004,
      "Ġinstitution": 9005,
      "Ġtraditional": 9006,
      "Ġnight": 9007,
      "ĠFrame": 9008,
      "Ġmeasures": 9009,
      "Ġleave": 9010,
      "Ġcro": 9011,
      "_symbol": 9012,
      "poses": 9013,
      "UNT": 9014,
      "Ġmusic": 9015,
      "tical": 9016,
      "_email": 9017,
      "ĠčĊčĊ": 9018,
      "Ġ\":": 9019,
      "æķ´": 9020,
      "mas": 9021,
      "Ref": 9022,
      "Ġformula": 9023,
      "Ġfailure": 9024,
      "*i": 9025,
      "/M": 9026,
      "NB": 9027,
      "marks": 9028,
      "Ġbranch": 9029,
      "uly": 9030,
      "clear": 9031,
      "Ġedit": 9032,
      ".up": 9033,
      "cro": 9034,
      "roke": 9035,
      "unit": 9036,
      ".cal": 9037,
      "ĠLink": 9038,
      "Ġplatform": 9039,
      "Ã¼": 9040,
      "Ġonto": 9041,
      "Us": 9042,
      "ĊĉĊ": 9043,
      "æľº": 9044,
      "ricult": 9045,
      "_session": 9046,
      "letters": 9047,
      "Ġbring": 9048,
      "Ġhighlight": 9049,
      "(cont": 9050,
      "apture": 9051,
      "Ġsupply": 9052,
      "ĠSince": 9053,
      "_vars": 9054,
      "Ġtook": 9055,
      "_initializer": 9056,
      "Ġexposure": 9057,
      "Ġelectr": 9058,
      "_ab": 9059,
      "ayes": 9060,
      "(ans": 9061,
      ".level": 9062,
      "urt": 9063,
      "Ġregex": 9064,
      "_sc": 9065,
      ".waitKey": 9066,
      "Ġfetch": 9067,
      "Ġreported": 9068,
      "PH": 9069,
      "Ġfeat": 9070,
      ".dtype": 9071,
      "quality": 9072,
      "onic": 9073,
      "Ġpprint": 9074,
      "Ġlove": 9075,
      "(score": 9076,
      "ĠVer": 9077,
      ".Se": 9078,
      "API": 9079,
      "#ĊĊ": 9080,
      "Ġeco": 9081,
      "ifies": 9082,
      "Ġdepending": 9083,
      "ĠListNode": 9084,
      ".matrix": 9085,
      "src": 9086,
      "æ²": 9087,
      "delete": 9088,
      "Ġhorizontal": 9089,
      "ĠSum": 9090,
      "ysical": 9091,
      "bal": 9092,
      "ĠVector": 9093,
      "iverse": 9094,
      "dec": 9095,
      "otic": 9096,
      "Ġalt": 9097,
      "=r": 9098,
      "Loss": 9099,
      "Ġbeam": 9100,
      "81": 9101,
      "seline": 9102,
      "(\"--": 9103,
      "_inputs": 9104,
      "Ġê²": 9105,
      "Next": 9106,
      "Two": 9107,
      "Ġfloor": 9108,
      "Ġdark": 9109,
      "Ġexternal": 9110,
      "ĠRemove": 9111,
      "Ġfollowed": 9112,
      "456": 9113,
      "350": 9114,
      "spath": 9115,
      "OU": 9116,
      "Ġhex": 9117,
      "AK": 9118,
      "ki": 9119,
      "_scope": 9120,
      "(points": 9121,
      "Ġnest": 9122,
      "Ġtravel": 9123,
      ".action": 9124,
      "tadata": 9125,
      "Ġsns": 9126,
      "stractmethod": 9127,
      "=re": 9128,
      "_[": 9129,
      "Ġsticky": 9130,
      "ĠCopyright": 9131,
      "106": 9132,
      "Ġsignificantly": 9133,
      ")\",": 9134,
      "ĠTH": 9135,
      "indrome": 9136,
      "ixer": 9137,
      "Ġveget": 9138,
      "Age": 9139,
      "Ġtro": 9140,
      "Ġrating": 9141,
      "Ġautomatically": 9142,
      "Ġ[čĊ": 9143,
      "Ġready": 9144,
      "some": 9145,
      "ĠNa": 9146,
      "æĺ¯åĲ¦": 9147,
      "Ġutiliz": 9148,
      "Ġcamp": 9149,
      "Ġdemand": 9150,
      ".xpath": 9151,
      "ĠSte": 9152,
      "(cor": 9153,
      "Ġreduction": 9154,
      "alchemy": 9155,
      "antage": 9156,
      ".assertRaises": 9157,
      "~~~~~~~~~~~~~~~~": 9158,
      "_pri": 9159,
      "Ġseem": 9160,
      "Ġsevere": 9161,
      "_reward": 9162,
      "Ġquite": 9163,
      "è¯į": 9164,
      "cwd": 9165,
      "Ġheav": 9166,
      "Ġfiltered": 9167,
      "access": 9168,
      "Ġ...Ċ": 9169,
      "Ġdescribe": 9170,
      "Ġhelper": 9171,
      "ney": 9172,
      ".makedirs": 9173,
      "Ġvertices": 9174,
      ")\")Ċ": 9175,
      "OCK": 9176,
      "Ġinfection": 9177,
      "_us": 9178,
      "Ġpresence": 9179,
      "addle": 9180,
      "_save": 9181,
      "(host": 9182,
      "Ġsites": 9183,
      "Ġess": 9184,
      "rier": 9185,
      "ĠMost": 9186,
      "Ġsurg": 9187,
      "(em": 9188,
      "Ġtrend": 9189,
      ".quit": 9190,
      "Ġviol": 9191,
      "_play": 9192,
      "ĠSV": 9193,
      "_training": 9194,
      "130": 9195,
      "cape": 9196,
      "planation": 9197,
      "Current": 9198,
      "torch": 9199,
      "roids": 9200,
      "()),": 9201,
      "Weight": 9202,
      "Write": 9203,
      "Ġdoctor": 9204,
      "ãģ¨": 9205,
      "ãĤ¹": 9206,
      "UC": 9207,
      "Ġembedding": 9208,
      "Ġconfusion": 9209,
      "(code": 9210,
      "140": 9211,
      "lr": 9212,
      "Ġcop": 9213,
      "ĠVALUES": 9214,
      "_te": 9215,
      "rams": 9216,
      "Ġdistinct": 9217,
      "stitution": 9218,
      "Menu": 9219,
      "Plot": 9220,
      "reset": 9221,
      "Ġcame": 9222,
      "Ġlost": 9223,
      "(side": 9224,
      "ĠLine": 9225,
      "ä»İ": 9226,
      ".vis": 9227,
      "uli": 9228,
      "_correct": 9229,
      "mero": 9230,
      "Ġadapt": 9231,
      "Ġcircuit": 9232,
      "ĠValid": 9233,
      "_ep": 9234,
      "ÐºÐ¸": 9235,
      "Ġprocedure": 9236,
      "_estim": 9237,
      "activation": 9238,
      "Ġ:čĊ": 9239,
      "helper": 9240,
      "Ġrepeat": 9241,
      ".att": 9242,
      "mid": 9243,
      "'])čĊ": 9244,
      "parameters": 9245,
      "_accuracy": 9246,
      "/'": 9247,
      "sec": 9248,
      "ĠAv": 9249,
      "_hat": 9250,
      "Ġfoods": 9251,
      "loyees": 9252,
      "gener": 9253,
      "Ġinp": 9254,
      ".isfile": 9255,
      "Server": 9256,
      "_delta": 9257,
      "Generator": 9258,
      "Ġrecall": 9259,
      "\\\"": 9260,
      "under": 9261,
      "61": 9262,
      "bert": 9263,
      "Ġlabor": 9264,
      "[pos": 9265,
      "åħ¶": 9266,
      ".optim": 9267,
      "alking": 9268,
      "_book": 9269,
      "Ġimplemented": 9270,
      "ĠSch": 9271,
      "Ġresistance": 9272,
      "çķ": 9273,
      "depth": 9274,
      "ë¦¬": 9275,
      "åĥı": 9276,
      "Sc": 9277,
      "íĬ": 9278,
      "Ġdetected": 9279,
      "Img": 9280,
      "Ġgenes": 9281,
      "iate": 9282,
      "Ġgold": 9283,
      "Ġchart": 9284,
      ".tick": 9285,
      "Ġpresented": 9286,
      "Ġplanet": 9287,
      "ãģĹãģ": 9288,
      "Tra": 9289,
      "alo": 9290,
      "Random": 9291,
      "ardi": 9292,
      "Ġgray": 9293,
      "_only": 9294,
      "çĻ": 9295,
      "éĩĮ": 9296,
      "Bar": 9297,
      "oices": 9298,
      "tuple": 9299,
      ".pdf": 9300,
      "Ġboolean": 9301,
      "Ġneighbors": 9302,
      "-C": 9303,
      "MENT": 9304,
      "ĠFinal": 9305,
      "imilarity": 9306,
      "Ġpet": 9307,
      "acket": 9308,
      "Ġincreases": 9309,
      "Average": 9310,
      "LI": 9311,
      "æīĵ": 9312,
      "stat": 9313,
      "Ġchecks": 9314,
      "ĠĠĠĠĠĠĠĊ": 9315,
      "iler": 9316,
      "Ġrapid": 9317,
      "Ġdocuments": 9318,
      "Ġ<<": 9319,
      "ĠPRO": 9320,
      "]])": 9321,
      "ëı": 9322,
      "Desktop": 9323,
      "Norm": 9324,
      "ĠCSV": 9325,
      "what": 9326,
      "ĠÐ²Ñĭ": 9327,
      "Ġdrive": 9328,
      "éķ¿": 9329,
      "Note": 9330,
      "encoding": 9331,
      "-y": 9332,
      "Ġunknown": 9333,
      "Ġvehicle": 9334,
      "Ġlegal": 9335,
      "Ġyourself": 9336,
      "âķĲ": 9337,
      "Ġstem": 9338,
      "rief": 9339,
      "questions": 9340,
      "Ġpractices": 9341,
      "çŁ": 9342,
      "/d": 9343,
      "ĠInitialize": 9344,
      "Ġcool": 9345,
      "_font": 9346,
      "ĠÐ¿Ð¾": 9347,
      "_api": 9348,
      "bc": 9349,
      "Ġ{:.": 9350,
      "ikip": 9351,
      "Ġflat": 9352,
      "rox": 9353,
      "_clean": 9354,
      "Ġprojects": 9355,
      "rics": 9356,
      "Ġelimin": 9357,
      "ĠNetwork": 9358,
      "Ġspeech": 9359,
      "counts": 9360,
      "æķ°ç»Ħ": 9361,
      "Ġparticle": 9362,
      "Ġproperly": 9363,
      "-up": 9364,
      "900": 9365,
      "Ġalphabet": 9366,
      "Ġfollows": 9367,
      "Ġ!": 9368,
      "Ġwidget": 9369,
      "(parent": 9370,
      "ĠHTTP": 9371,
      "_URL": 9372,
      "čĊĠĠĠĠĠĠĠĠčĊ": 9373,
      "Ġnorth": 9374,
      "losing": 9375,
      "ĠAmerica": 9376,
      "LA": 9377,
      "Ġfname": 9378,
      "adow": 9379,
      "ĠCons": 9380,
      "Mean": 9381,
      "RS": 9382,
      "_stat": 9383,
      "Vec": 9384,
      "ĠnÃº": 9385,
      "mass": 9386,
      "rench": 9387,
      "Ġconverted": 9388,
      "Ġgap": 9389,
      "Ġexplore": 9390,
      "ĠSearch": 9391,
      "_local": 9392,
      "Ġoptimal": 9393,
      "Ġsym": 9394,
      "Ġìķ": 9395,
      "Here": 9396,
      "Ġstay": 9397,
      "avig": 9398,
      "195": 9399,
      "Ġsolar": 9400,
      "................": 9401,
      "Ġassessment": 9402,
      "children": 9403,
      ").ĊĊ": 9404,
      "life": 9405,
      "structor": 9406,
      "æī¾": 9407,
      "%d": 9408,
      "Task": 9409,
      ".core": 9410,
      "ĠĠĠĠĠĠĠĠĠĠĠĠĠĠĠĠĠĠĠĠĠĠĠĠĠĠĠĠĠĠĠĠĠĠĠĠĠĠĠĠĠĠĠĠĠĠĠĠĠĠĠ": 9411,
      "Ġobservations": 9412,
      "Ġslice": 9413,
      "Ġagree": 9414,
      "äºº": 9415,
      "=\",": 9416,
      "ita": 9417,
      "âĢĻll": 9418,
      ".Variable": 9419,
      "Ġsustain": 9420,
      "ĠFound": 9421,
      "Ġcru": 9422,
      "Ġoil": 9423,
      "Ġadminist": 9424,
      "Ġappears": 9425,
      "metric": 9426,
      "ĠScore": 9427,
      "ĠPost": 9428,
      "Ġchi": 9429,
      ".shuffle": 9430,
      "Ð°Ð´": 9431,
      "Ġillustr": 9432,
      "uge": 9433,
      ".floor": 9434,
      "']))Ċ": 9435,
      "Ġobjective": 9436,
      "çī¹": 9437,
      "Ġcontrast": 9438,
      "=('": 9439,
      ">',": 9440,
      "ĉcont": 9441,
      "ĠEduc": 9442,
      "é¡µ": 9443,
      "arp": 9444,
      "ultiply": 9445,
      "Ġbed": 9446,
      "Ġfinished": 9447,
      "Ġthinking": 9448,
      "./": 9449,
      "_numpy": 9450,
      "_components": 9451,
      "_loader": 9452,
      ",num": 9453,
      "Ġdeck": 9454,
      "Ġregression": 9455,
      "_room": 9456,
      "Url": 9457,
      "ÐµÐ½Ð¸Ðµ": 9458,
      ".Re": 9459,
      "stats": 9460,
      "__,": 9461,
      "åĪ¶": 9462,
      "Ġschedule": 9463,
      "Given": 9464,
      "wt": 9465,
      "udy": 9466,
      "cean": 9467,
      ".hist": 9468,
      "ä¸ŃçļĦ": 9469,
      "fa": 9470,
      "íĦ": 9471,
      "ette": 9472,
      "Ġlocated": 9473,
      "Ġidentity": 9474,
      "ĠOnly": 9475,
      "Ġschema": 9476,
      "ena": 9477,
      "(html": 9478,
      "ĠCent": 9479,
      "clusion": 9480,
      "ĠChange": 9481,
      "itis": 9482,
      "clar": 9483,
      "Ġpoor": 9484,
      "_comb": 9485,
      "Ġcontract": 9486,
      "Ġremote": 9487,
      "'ve": 9488,
      ".',Ċ": 9489,
      "Ġframework": 9490,
      "haps": 9491,
      "witter": 9492,
      "system": 9493,
      "Loader": 9494,
      "ires": 9495,
      "Stream": 9496,
      "After": 9497,
      "Ġlang": 9498,
      "_module": 9499,
      ".preprocessing": 9500,
      "arrow": 9501,
      ".Th": 9502,
      "logies": 9503,
      "hand": 9504,
      "ĠSim": 9505,
      ".merge": 9506,
      "ë©´": 9507,
      ",z": 9508,
      "cending": 9509,
      "Ġcomments": 9510,
      "'})Ċ": 9511,
      "ê²": 9512,
      "alty": 9513,
      "lash": 9514,
      "_volume": 9515,
      "Ġdetermined": 9516,
      "Ġmention": 9517,
      "CON": 9518,
      "ĠDon": 9519,
      ".body": 9520,
      "*n": 9521,
      "men": 9522,
      "Ġbounds": 9523,
      "Pe": 9524,
      "_stock": 9525,
      "crease": 9526,
      "Press": 9527,
      "Ġcompreh": 9528,
      "Ġtrying": 9529,
      "Child": 9530,
      "#%%": 9531,
      "Ġmeasured": 9532,
      "ikipedia": 9533,
      "Ġcart": 9534,
      "ĠLab": 9535,
      "umed": 9536,
      "ĉnew": 9537,
      "Ġreasons": 9538,
      "ĠAS": 9539,
      "Ne": 9540,
      "Ġwinner": 9541,
      "Ġunicode": 9542,
      "Ġcharacteristics": 9543,
      "Ġquantity": 9544,
      ".strptime": 9545,
      "Ġmental": 9546,
      "Ġclinical": 9547,
      "'d": 9548,
      "-de": 9549,
      ".use": 9550,
[...]
